{
  "version": "1.0",
  "truncation": null,
  "padding": null,
  "added_tokens": [
    {
      "id": 0,
      "content": "<pad>",
      "single_word": false,
      "lstrip": false,
      "rstrip": false,
      "normalized": false,
      "special": true
    },
    {
      "id": 1,
      "content": "<s>",
      "single_word": false,
      "lstrip": false,
      "rstrip": false,
      "normalized": false,
      "special": true
    },
    {
      "id": 2,
      "content": "</s>",
      "single_word": false,
      "lstrip": false,
      "rstrip": false,
      "normalized": false,
      "special": true
    },
    {
      "id": 3,
      "content": "<unk>",
      "single_word": false,
      "lstrip": false,
      "rstrip": false,
      "normalized": false,
      "special": true
    },
    {
      "id": 4,
      "content": "<mask>",
      "single_word": false,
      "lstrip": false,
      "rstrip": false,
      "normalized": false,
      "special": true
    },
    {
      "id": 5,
      "content": "<|endoftext|>",
      "single_word": false,
      "lstrip": false,
      "rstrip": false,
      "normalized": false,
      "special": true
    }
  ],
  "normalizer": {
    "type": "Sequence",
    "normalizers": [
      {
        "type": "NFKC"
      }
    ]
  },
  "pre_tokenizer": {
    "type": "Sequence",
    "pretokenizers": [
      {
        "type": "WhitespaceSplit"
      },
      {
        "type": "ByteLevel",
        "add_prefix_space": false,
        "trim_offsets": true,
        "use_regex": true
      }
    ]
  },
  "post_processor": {
    "type": "ByteLevel",
    "add_prefix_space": true,
    "trim_offsets": false,
    "use_regex": true
  },
  "decoder": {
    "type": "ByteLevel",
    "add_prefix_space": true,
    "trim_offsets": true,
    "use_regex": true
  },
  "model": {
    "type": "BPE",
    "dropout": null,
    "unk_token": "<unk>",
    "continuing_subword_prefix": null,
    "end_of_word_suffix": null,
    "fuse_unk": false,
    "byte_fallback": false,
    "ignore_merges": false,
    "vocab": {
      "<pad>": 0,
      "<s>": 1,
      "</s>": 2,
      "<unk>": 3,
      "<mask>": 4,
      "<|endoftext|>": 5,
      "!": 6,
      "\"": 7,
      "#": 8,
      "$": 9,
      "%": 10,
      "&": 11,
      "'": 12,
      "(": 13,
      ")": 14,
      "*": 15,
      "+": 16,
      ",": 17,
      "-": 18,
      ".": 19,
      "/": 20,
      "0": 21,
      "1": 22,
      "2": 23,
      "3": 24,
      "4": 25,
      "5": 26,
      "6": 27,
      "7": 28,
      "8": 29,
      "9": 30,
      ":": 31,
      ";": 32,
      "<": 33,
      "=": 34,
      ">": 35,
      "?": 36,
      "@": 37,
      "A": 38,
      "B": 39,
      "C": 40,
      "D": 41,
      "E": 42,
      "F": 43,
      "G": 44,
      "H": 45,
      "I": 46,
      "J": 47,
      "K": 48,
      "L": 49,
      "M": 50,
      "N": 51,
      "O": 52,
      "P": 53,
      "Q": 54,
      "R": 55,
      "S": 56,
      "T": 57,
      "U": 58,
      "V": 59,
      "W": 60,
      "X": 61,
      "Y": 62,
      "Z": 63,
      "[": 64,
      "\\": 65,
      "]": 66,
      "^": 67,
      "_": 68,
      "`": 69,
      "a": 70,
      "b": 71,
      "c": 72,
      "d": 73,
      "e": 74,
      "f": 75,
      "g": 76,
      "h": 77,
      "i": 78,
      "j": 79,
      "k": 80,
      "l": 81,
      "m": 82,
      "n": 83,
      "o": 84,
      "p": 85,
      "q": 86,
      "r": 87,
      "s": 88,
      "t": 89,
      "u": 90,
      "v": 91,
      "w": 92,
      "x": 93,
      "y": 94,
      "z": 95,
      "{": 96,
      "|": 97,
      "}": 98,
      "~": 99,
      "¡": 100,
      "¢": 101,
      "£": 102,
      "¤": 103,
      "¥": 104,
      "¦": 105,
      "§": 106,
      "¨": 107,
      "©": 108,
      "ª": 109,
      "«": 110,
      "¬": 111,
      "®": 112,
      "¯": 113,
      "°": 114,
      "±": 115,
      "²": 116,
      "³": 117,
      "´": 118,
      "µ": 119,
      "¶": 120,
      "·": 121,
      "¸": 122,
      "¹": 123,
      "º": 124,
      "»": 125,
      "¼": 126,
      "½": 127,
      "¾": 128,
      "¿": 129,
      "À": 130,
      "Á": 131,
      "Â": 132,
      "Ã": 133,
      "Ä": 134,
      "Å": 135,
      "Æ": 136,
      "Ç": 137,
      "È": 138,
      "É": 139,
      "Ê": 140,
      "Ë": 141,
      "Ì": 142,
      "Í": 143,
      "Î": 144,
      "Ï": 145,
      "Ð": 146,
      "Ñ": 147,
      "Ò": 148,
      "Ó": 149,
      "Ô": 150,
      "Õ": 151,
      "Ö": 152,
      "×": 153,
      "Ø": 154,
      "Ù": 155,
      "Ú": 156,
      "Û": 157,
      "Ü": 158,
      "Ý": 159,
      "Þ": 160,
      "ß": 161,
      "à": 162,
      "á": 163,
      "â": 164,
      "ã": 165,
      "ä": 166,
      "å": 167,
      "æ": 168,
      "ç": 169,
      "è": 170,
      "é": 171,
      "ê": 172,
      "ë": 173,
      "ì": 174,
      "í": 175,
      "î": 176,
      "ï": 177,
      "ð": 178,
      "ñ": 179,
      "ò": 180,
      "ó": 181,
      "ô": 182,
      "õ": 183,
      "ö": 184,
      "÷": 185,
      "ø": 186,
      "ù": 187,
      "ú": 188,
      "û": 189,
      "ü": 190,
      "ý": 191,
      "þ": 192,
      "ÿ": 193,
      "Ā": 194,
      "ā": 195,
      "Ă": 196,
      "ă": 197,
      "Ą": 198,
      "ą": 199,
      "Ć": 200,
      "ć": 201,
      "Ĉ": 202,
      "ĉ": 203,
      "Ċ": 204,
      "ċ": 205,
      "Č": 206,
      "č": 207,
      "Ď": 208,
      "ď": 209,
      "Đ": 210,
      "đ": 211,
      "Ē": 212,
      "ē": 213,
      "Ĕ": 214,
      "ĕ": 215,
      "Ė": 216,
      "ė": 217,
      "Ę": 218,
      "ę": 219,
      "Ě": 220,
      "ě": 221,
      "Ĝ": 222,
      "ĝ": 223,
      "Ğ": 224,
      "ğ": 225,
      "Ġ": 226,
      "ġ": 227,
      "Ģ": 228,
      "ģ": 229,
      "Ĥ": 230,
      "ĥ": 231,
      "Ħ": 232,
      "ħ": 233,
      "Ĩ": 234,
      "ĩ": 235,
      "Ī": 236,
      "ī": 237,
      "Ĭ": 238,
      "ĭ": 239,
      "Į": 240,
      "į": 241,
      "İ": 242,
      "ı": 243,
      "Ĳ": 244,
      "ĳ": 245,
      "Ĵ": 246,
      "ĵ": 247,
      "Ķ": 248,
      "ķ": 249,
      "ĸ": 250,
      "Ĺ": 251,
      "ĺ": 252,
      "Ļ": 253,
      "ļ": 254,
      "Ľ": 255,
      "ľ": 256,
      "Ŀ": 257,
      "ŀ": 258,
      "Ł": 259,
      "ł": 260,
      "Ń": 261,
      "th": 262,
      "in": 263,
      "er": 264,
      "an": 265,
      "on": 266,
      "re": 267,
      "the": 268,
      "at": 269,
      "en": 270,
      "or": 271,
      "st": 272,
      "al": 273,
      "ed": 274,
      "ar": 275,
      "ou": 276,
      "es": 277,
      "ing": 278,
      "is": 279,
      "it": 280,
      "to": 281,
      "as": 282,
      "and": 283,
      "of": 284,
      "el": 285,
      "ic": 286,
      "ion": 287,
      "le": 288,
      "om": 289,
      "ent": 290,
      "il": 291,
      "ac": 292,
      "se": 293,
      "de": 294,
      "he": 295,
      "am": 296,
      "âĢ": 297,
      "ro": 298,
      "for": 299,
      "ch": 300,
      "ad": 301,
      "im": 302,
      "et": 303,
      "ol": 304,
      "ve": 305,
      "be": 306,
      "ur": 307,
      "id": 308,
      "ig": 309,
      "ow": 310,
      "ay": 311,
      "ct": 312,
      "ly": 313,
      "ot": 314,
      "ver": 315,
      "un": 316,
      "ut": 317,
      "ation": 318,
      "ag": 319,
      "wh": 320,
      "sel": 321,
      "that": 322,
      "ir": 323,
      "con": 324,
      "ce": 325,
      "ab": 326,
      "us": 327,
      "ith": 328,
      "ter": 329,
      "if": 330,
      "ap": 331,
      "self": 332,
      "ul": 333,
      "op": 334,
      "are": 335,
      "ex": 336,
      "lo": 337,
      "The": 338,
      "with": 339,
      "res": 340,
      "ers": 341,
      "em": 342,
      "ist": 343,
      "com": 344,
      "mo": 345,
      "tr": 346,
      "fr": 347,
      "pl": 348,
      "our": 349,
      "pe": 350,
      "all": 351,
      "ate": 352,
      "pro": 353,
      "âĢĻ": 354,
      "um": 355,
      "was": 356,
      "est": 357,
      "ill": 358,
      "ne": 359,
      "ere": 360,
      "oun": 361,
      "ke": 362,
      "out": 363,
      "su": 364,
      "ain": 365,
      "qu": 366,
      "ort": 367,
      "sh": 368,
      "from": 369,
      "20": 370,
      "one": 371,
      "--": 372,
      "by": 373,
      "ess": 374,
      "art": 375,
      "ame": 376,
      "we": 377,
      "igh": 378,
      "ri": 379,
      "ha": 380,
      "cl": 381,
      "ass": 382,
      "ld": 383,
      "po": 384,
      "not": 385,
      "ity": 386,
      "od": 387,
      "so": 388,
      "In": 389,
      "end": 390,
      "port": 391,
      "ment": 392,
      "'s": 393,
      "ant": 394,
      "per": 395,
      "ies": 396,
      "his": 397,
      "you": 398,
      "19": 399,
      "ther": 400,
      "act": 401,
      "iv": 402,
      "ect": 403,
      "ma": 404,
      "ue": 405,
      "pr": 406,
      "co": 407,
      "up": 408,
      "ive": 409,
      "wor": 410,
      "ack": 411,
      "gr": 412,
      "ust": 413,
      "ast": 414,
      "):": 415,
      "ard": 416,
      "ight": 417,
      "def": 418,
      "ge": 419,
      "age": 420,
      "have": 421,
      "ial": 422,
      "this": 423,
      "go": 424,
      "int": 425,
      "get": 426,
      "00": 427,
      "\"\"": 428,
      "ould": 429,
      "li": 430,
      "',": 431,
      "ear": 432,
      "do": 433,
      "but": 434,
      "der": 435,
      "man": 436,
      "##": 437,
      "has": 438,
      "ret": 439,
      "ine": 440,
      "ie": 441,
      "au": 442,
      "ip": 443,
      "ck": 444,
      "ind": 445,
      "te": 446,
      "gh": 447,
      "can": 448,
      "pt": 449,
      "ber": 450,
      "ile": 451,
      "ome": 452,
      "urn": 453,
      "),": 454,
      "tim": 455,
      "me": 456,
      "ated": 457,
      "ans": 458,
      "str": 459,
      "ions": 460,
      "ich": 461,
      "si": 462,
      "ell": 463,
      "ev": 464,
      "red": 465,
      "af": 466,
      "ser": 467,
      "ult": 468,
      "bo": 469,
      "form": 470,
      "av": 471,
      "fo": 472,
      "ice": 473,
      "âĢľ": 474,
      "able": 475,
      "ound": 476,
      "ok": 477,
      "ud": 478,
      "âĢĿ": 479,
      "ong": 480,
      "ty": 481,
      "ish": 482,
      "ally": 483,
      "no": 484,
      "will": 485,
      "bl": 486,
      "own": 487,
      "comp": 488,
      "ary": 489,
      "==": 490,
      "ia": 491,
      "ough": 492,
      "fer": 493,
      "ure": 494,
      "ak": 495,
      "Ch": 496,
      "()": 497,
      "aw": 498,
      "Th": 499,
      "ach": 500,
      "cont": 501,
      "St": 502,
      "201": 503,
      "name": 504,
      "----": 505,
      "ign": 506,
      "set": 507,
      "they": 508,
      "ous": 509,
      "iz": 510,
      "Re": 511,
      "its": 512,
      "sa": 513,
      "who": 514,
      "which": 515,
      "ace": 516,
      "It": 517,
      "their": 518,
      "sp": 519,
      "work": 520,
      "ob": 521,
      "ire": 522,
      "part": 523,
      "âĢĵ": 524,
      "ite": 525,
      "sc": 526,
      "ath": 527,
      "('": 528,
      "ext": 529,
      "ail": 530,
      "any": 531,
      "ence": 532,
      "return": 533,
      "time": 534,
      "Tr": 535,
      "more": 536,
      "were": 537,
      "val": 538,
      "ren": 539,
      "ase": 540,
      "':": 541,
      "your": 542,
      "dat": 543,
      "new": 544,
      "year": 545,
      "An": 546,
      "ian": 547,
      "other": 548,
      "br": 549,
      "had": 550,
      "day": 551,
      "__": 552,
      "import": 553,
      "..": 554,
      "play": 555,
      "du": 556,
      "pos": 557,
      "also": 558,
      "ical": 559,
      "over": 560,
      "ance": 561,
      "eld": 562,
      "off": 563,
      "enc": 564,
      "cor": 565,
      "pres": 566,
      "some": 567,
      "ert": 568,
      "now": 569,
      "ang": 570,
      "ory": 571,
      "dis": 572,
      "about": 573,
      "her": 574,
      "ict": 575,
      "ents": 576,
      "arg": 577,
      "my": 578,
      "cr": 579,
      "He": 580,
      "app": 581,
      "very": 582,
      "col": 583,
      "fir": 584,
      "ens": 585,
      "ations": 586,
      "ree": 587,
      "add": 588,
      "comm": 589,
      "ick": 590,
      "del": 591,
      "fe": 592,
      "cent": 593,
      "cre": 594,
      "os": 595,
      "ide": 596,
      "vers": 597,
      "ction": 598,
      "\",": 599,
      "par": 600,
      "said": 601,
      "inter": 602,
      "ition": 603,
      "cess": 604,
      "ject": 605,
      "been": 606,
      "ings": 607,
      "way": 608,
      "test": 609,
      "ely": 610,
      "tw": 611,
      "\"\"\"": 612,
      "og": 613,
      "Un": 614,
      "mer": 615,
      "would": 616,
      "pre": 617,
      "low": 618,
      "sy": 619,
      "ph": 620,
      "ink": 621,
      "spe": 622,
      "min": 623,
      "bu": 624,
      "ors": 625,
      "ield": 626,
      "amp": 627,
      "Wh": 628,
      "coun": 629,
      "ble": 630,
      "cur": 631,
      "ople": 632,
      "ild": 633,
      ").": 634,
      "att": 635,
      "ep": 636,
      "old": 637,
      "200": 638,
      "ry": 639,
      "####": 640,
      "ra": 641,
      "ark": 642,
      "Al": 643,
      "first": 644,
      "des": 645,
      "oc": 646,
      "when": 647,
      "data": 648,
      "ef": 649,
      "')": 650,
      "read": 651,
      "there": 652,
      "back": 653,
      "This": 654,
      "ates": 655,
      "fil": 656,
      "them": 657,
      "ater": 658,
      "than": 659,
      "like": 660,
      "vel": 661,
      "We": 662,
      "row": 663,
      "people": 664,
      "into": 665,
      "pol": 666,
      "10": 667,
      "put": 668,
      "reg": 669,
      "ubl": 670,
      "ful": 671,
      "just": 672,
      "']": 673,
      "['": 674,
      "Ne": 675,
      "most": 676,
      "18": 677,
      "ts": 678,
      "(\"": 679,
      "Con": 680,
      "what": 681,
      "list": 682,
      "class": 683,
      "))": 684,
      "thing": 685,
      "mon": 686,
      "use": 687,
      "land": 688,
      "ener": 689,
      "cho": 690,
      "wr": 691,
      "Se": 692,
      "only": 693,
      "after": 694,
      "requ": 695,
      "oup": 696,
      "'t": 697,
      "num": 698,
      "two": 699,
      "serv": 700,
      "arch": 701,
      "ta": 702,
      "fore": 703,
      "key": 704,
      "fl": 705,
      "how": 706,
      "ran": 707,
      "None": 708,
      "incl": 709,
      "ied": 710,
      "Ar": 711,
      "atch": 712,
      "sub": 713,
      "cial": 714,
      "ho": 715,
      "ious": 716,
      "ress": 717,
      "ational": 718,
      "ise": 719,
      "ms": 720,
      "ann": 721,
      "try": 722,
      "bet": 723,
      "path": 724,
      "assert": 725,
      "iss": 726,
      "publ": 727,
      "med": 728,
      "ug": 729,
      "bec": 730,
      "line": 731,
      "cept": 732,
      "call": 733,
      "iew": 734,
      "âĢĶ": 735,
      "ual": 736,
      "under": 737,
      "rel": 738,
      "she": 739,
      "io": 740,
      "ident": 741,
      "cord": 742,
      "start": 743,
      "prov": 744,
      "file": 745,
      "pon": 746,
      "where": 747,
      "Com": 748,
      "used": 749,
      "son": 750,
      "loc": 751,
      "ause": 752,
      "eng": 753,
      "itt": 754,
      "ose": 755,
      "dr": 756,
      "fun": 757,
      "True": 758,
      "air": 759,
      "che": 760,
      "fin": 761,
      "--------": 762,
      "log": 763,
      "ason": 764,
      "type": 765,
      "ss": 766,
      "let": 767,
      "les": 768,
      "ited": 769,
      "him": 770,
      "ore": 771,
      "rough": 772,
      "ating": 773,
      "model": 774,
      "dif": 775,
      "ub": 776,
      "then": 777,
      "inst": 778,
      "need": 779,
      "point": 780,
      "ased": 781,
      "right": 782,
      "ror": 783,
      "ask": 784,
      "Ex": 785,
      "ics": 786,
      "Amer": 787,
      "ican": 788,
      "En": 789,
      "hel": 790,
      "don": 791,
      "For": 792,
      "say": 793,
      "field": 794,
      "sup": 795,
      "cond": 796,
      "ll": 797,
      "reat": 798,
      "produ": 799,
      "New": 800,
      "main": 801,
      ".\"": 802,
      "ning": 803,
      "ific": 804,
      "make": 805,
      "could": 806,
      "mem": 807,
      "als": 808,
      "uring": 809,
      "ek": 810,
      "ced": 811,
      "De": 812,
      "view": 813,
      "years": 814,
      "many": 815,
      "cons": 816,
      "ames": 817,
      "ities": 818,
      "run": 819,
      "result": 820,
      "._": 821,
      "well": 822,
      "again": 823,
      "down": 824,
      "],": 825,
      "may": 826,
      "ces": 827,
      "through": 828,
      "trans": 829,
      "ton": 830,
      "As": 831,
      "And": 832,
      "But": 833,
      "pect": 834,
      "12": 835,
      "ix": 836,
      "tern": 837,
      "come": 838,
      "ins": 839,
      "ash": 840,
      "cle": 841,
      "ple": 842,
      "ient": 843,
      "If": 844,
      "ative": 845,
      "Pro": 846,
      "stat": 847,
      "even": 848,
      "show": 849,
      "jo": 850,
      "value": 851,
      "Le": 852,
      "irect": 853,
      "fig": 854,
      "group": 855,
      "head": 856,
      "high": 857,
      "ward": 858,
      "qual": 859,
      "help": 860,
      "includ": 861,
      "ily": 862,
      "stem": 863,
      "look": 864,
      "want": 865,
      "gan": 866,
      "No": 867,
      "**": 868,
      "these": 869,
      "ank": 870,
      "print": 871,
      "ement": 872,
      ".âĢĿ": 873,
      "last": 874,
      "erson": 875,
      "ze": 876,
      "did": 877,
      "gu": 878,
      "car": 879,
      "ife": 880,
      "every": 881,
      "ved": 882,
      "pass": 883,
      "199": 884,
      "ting": 885,
      "fect": 886,
      "ever": 887,
      "stud": 888,
      "know": 889,
      "should": 890,
      "ular": 891,
      "ade": 892,
      "see": 893,
      "led": 894,
      "ences": 895,
      "fol": 896,
      "ices": 897,
      "Br": 898,
      "ime": 899,
      "ale": 900,
      "You": 901,
      "user": 902,
      "ists": 903,
      "team": 904,
      "On": 905,
      "because": 906,
      "\")": 907,
      "side": 908,
      "mark": 909,
      "respon": 910,
      "bel": 911,
      "being": 912,
      "uch": 913,
      "vis": 914,
      "15": 915,
      "state": 916,
      "long": 917,
      "ince": 918,
      "else": 919,
      "ship": 920,
      "while": 921,
      "clo": 922,
      "ys": 923,
      "ments": 924,
      "ff": 925,
      "Cl": 926,
      "though": 927,
      "olog": 928,
      "less": 929,
      "====": 930,
      "hand": 931,
      "such": 932,
      "ages": 933,
      "made": 934,
      "ures": 935,
      "ci": 936,
      "sur": 937,
      "leg": 938,
      "tal": 939,
      "ivers": 940,
      "stand": 941,
      "ven": 942,
      "before": 943,
      "ern": 944,
      "ib": 945,
      "ines": 946,
      "sign": 947,
      "chool": 948,
      "ility": 949,
      "open": 950,
      "cut": 951,
      "py": 952,
      "ER": 953,
      "rent": 954,
      "ner": 955,
      "var": 956,
      "########": 957,
      "000": 958,
      ",âĢĿ": 959,
      "king": 960,
      "cap": 961,
      "Ad": 962,
      "ball": 963,
      "init": 964,
      "Bo": 965,
      "sim": 966,
      "alse": 967,
      "sm": 968,
      "arr": 969,
      "ween": 970,
      "ues": 971,
      "opt": 972,
      "sing": 973,
      "11": 974,
      "dec": 975,
      "gener": 976,
      "found": 977,
      "fact": 978,
      "ouse": 979,
      "fam": 980,
      "args": 981,
      "bor": 982,
      "public": 983,
      "ger": 984,
      "Jo": 985,
      "stru": 986,
      "top": 987,
      "book": 988,
      "miss": 989,
      "dist": 990,
      "Ro": 991,
      "elect": 992,
      "cri": 993,
      "la": 994,
      "system": 995,
      "find": 996,
      "ving": 997,
      "IN": 998,
      "place": 999,
      "Col": 1000,
      "16": 1001,
      "between": 1002,
      "peri": 1003,
      "date": 1004,
      "ds": 1005,
      "ht": 1006,
      "does": 1007,
      "lead": 1008,
      "30": 1009,
      "Is": 1010,
      "ump": 1011,
      "Be": 1012,
      "sk": 1013,
      "\":": 1014,
      "met": 1015,
      "load": 1016,
      "cour": 1017,
      "game": 1018,
      "='": 1019,
      "much": 1020,
      "pri": 1021,
      "those": 1022,
      "American": 1023,
      "think": 1024,
      "object": 1025,
      "ault": 1026,
      "world": 1027,
      "ier": 1028,
      "number": 1029,
      "...": 1030,
      "differ": 1031,
      "vol": 1032,
      "aph": 1033,
      "emp": 1034,
      "ished": 1035,
      "direct": 1036,
      "Fr": 1037,
      "aren": 1038,
      "good": 1039,
      "ten": 1040,
      "report": 1041,
      "Sh": 1042,
      "Gr": 1043,
      "ters": 1044,
      "ually": 1045,
      "gram": 1046,
      "17": 1047,
      "ange": 1048,
      "Er": 1049,
      "ower": 1050,
      "person": 1051,
      "US": 1052,
      "oper": 1053,
      "build": 1054,
      "ional": 1055,
      "exp": 1056,
      "vern": 1057,
      "char": 1058,
      "ator": 1059,
      "present": 1060,
      "False": 1061,
      "text": 1062,
      "At": 1063,
      "spec": 1064,
      "post": 1065,
      "same": 1066,
      "There": 1067,
      "25": 1068,
      "follow": 1069,
      "here": 1070,
      "support": 1071,
      "three": 1072,
      "child": 1073,
      "bus": 1074,
      "count": 1075,
      "sure": 1076,
      "ired": 1077,
      "mat": 1078,
      "len": 1079,
      "They": 1080,
      "sol": 1081,
      "govern": 1082,
      "ision": 1083,
      "process": 1084,
      "real": 1085,
      "az": 1086,
      "AT": 1087,
      "week": 1088,
      "war": 1089,
      ",\"": 1090,
      "Pr": 1091,
      "=\"": 1092,
      "during": 1093,
      "search": 1094,
      "inde": 1095,
      "second": 1096,
      "lab": 1097,
      "lock": 1098,
      "db": 1099,
      "devel": 1100,
      "ives": 1101,
      "gl": 1102,
      "Mo": 1103,
      "vent": 1104,
      "ax": 1105,
      "param": 1106,
      "net": 1107,
      "against": 1108,
      "ON": 1109,
      "ves": 1110,
      "season": 1111,
      "bers": 1112,
      "ave": 1113,
      "198": 1114,
      "take": 1115,
      "pop": 1116,
      "Co": 1117,
      "each": 1118,
      "nor": 1119,
      "rele": 1120,
      "ider": 1121,
      "vi": 1122,
      "ense": 1123,
      "going": 1124,
      "iter": 1125,
      "14": 1126,
      "Pl": 1127,
      "tak": 1128,
      "request": 1129,
      "ery": 1130,
      "link": 1131,
      "url": 1132,
      "Wor": 1133,
      "both": 1134,
      "order": 1135,
      "di": 1136,
      "To": 1137,
      "home": 1138,
      "care": 1139,
      "])": 1140,
      "life": 1141,
      "current": 1142,
      "RE": 1143,
      "contin": 1144,
      "ft": 1145,
      "prof": 1146,
      "develop": 1147,
      "using": 1148,
      "ars": 1149,
      "''": 1150,
      "code": 1151,
      "iness": 1152,
      "rest": 1153,
      "law": 1154,
      "item": 1155,
      "models": 1156,
      "So": 1157,
      "still": 1158,
      "bre": 1159,
      "press": 1160,
      "ral": 1161,
      "unt": 1162,
      "ism": 1163,
      "ST": 1164,
      "around": 1165,
      "auth": 1166,
      "iversity": 1167,
      "que": 1168,
      "kn": 1169,
      "Nor": 1170,
      "ody": 1171,
      "tain": 1172,
      "ource": 1173,
      "ants": 1174,
      "move": 1175,
      "alth": 1176,
      "level": 1177,
      "50": 1178,
      "action": 1179,
      "13": 1180,
      "formation": 1181,
      "ways": 1182,
      "How": 1183,
      "ah": 1184,
      "allow": 1185,
      "appe": 1186,
      "graph": 1187,
      "plic": 1188,
      "best": 1189,
      "ized": 1190,
      "ood": 1191,
      "light": 1192,
      "men": 1193,
      "ake": 1194,
      "ury": 1195,
      "record": 1196,
      "site": 1197,
      "Coun": 1198,
      "outh": 1199,
      "commun": 1200,
      "ont": 1201,
      "//": 1202,
      "project": 1203,
      "ferences": 1204,
      "She": 1205,
      "wom": 1206,
      "ature": 1207,
      "issu": 1208,
      "ared": 1209,
      "including": 1210,
      "ude": 1211,
      "cover": 1212,
      "illion": 1213,
      "ey": 1214,
      "event": 1215,
      "config": 1216,
      "offic": 1217,
      "hist": 1218,
      "cy": 1219,
      "ref": 1220,
      "nam": 1221,
      "ik": 1222,
      "quest": 1223,
      "size": 1224,
      "contr": 1225,
      "Mar": 1226,
      "next": 1227,
      "lot": 1228,
      "ize": 1229,
      "check": 1230,
      "United": 1231,
      "ument": 1232,
      "month": 1233,
      "attr": 1234,
      "ross": 1235,
      "iving": 1236,
      "design": 1237,
      "lect": 1238,
      "thod": 1239,
      "lim": 1240,
      "ster": 1241,
      "ets": 1242,
      "Or": 1243,
      "win": 1244,
      "Can": 1245,
      "197": 1246,
      "Error": 1247,
      "ister": 1248,
      "ese": 1249,
      "contro": 1250,
      "version": 1251,
      "known": 1252,
      "max": 1253,
      "organ": 1254,
      "join": 1255,
      "gy": 1256,
      "different": 1257,
      "polit": 1258,
      "government": 1259,
      "ica": 1260,
      "since": 1261,
      "ital": 1262,
      "tp": 1263,
      "vest": 1264,
      "tar": 1265,
      "power": 1266,
      "create": 1267,
      "except": 1268,
      "program": 1269,
      "ina": 1270,
      "cus": 1271,
      "inal": 1272,
      "ically": 1273,
      "chn": 1274,
      "called": 1275,
      "ample": 1276,
      "mess": 1277,
      "Res": 1278,
      "por": 1279,
      "bro": 1280,
      "jan": 1281,
      "school": 1282,
      "{'": 1283,
      "Ser": 1284,
      "format": 1285,
      "Field": 1286,
      "left": 1287,
      "expect": 1288,
      "change": 1289,
      "pat": 1290,
      "mar": 1291,
      "ote": 1292,
      "dict": 1293,
      "Af": 1294,
      "mp": 1295,
      "rece": 1296,
      "got": 1297,
      "doc": 1298,
      "conne": 1299,
      "ush": 1300,
      "too": 1301,
      "vir": 1302,
      "default": 1303,
      "won": 1304,
      "ord": 1305,
      "pend": 1306,
      "22": 1307,
      "els": 1308,
      "based": 1309,
      "hn": 1310,
      "four": 1311,
      "tit": 1312,
      "\".": 1313,
      "aim": 1314,
      "uc": 1315,
      "struct": 1316,
      "pay": 1317,
      "That": 1318,
      "iting": 1319,
      "References": 1320,
      "ution": 1321,
      "big": 1322,
      "really": 1323,
      "partic": 1324,
      "mber": 1325,
      "Ind": 1326,
      "np": 1327,
      "later": 1328,
      "ural": 1329,
      "University": 1330,
      "gre": 1331,
      "uary": 1332,
      "ety": 1333,
      "Par": 1334,
      "suc": 1335,
      "uro": 1336,
      "AN": 1337,
      "When": 1338,
      "bed": 1339,
      "ather": 1340,
      "descri": 1341,
      "ull": 1342,
      "few": 1343,
      "ness": 1344,
      "40": 1345,
      "21": 1346,
      "pur": 1347,
      "happ": 1348,
      "fields": 1349,
      "Chr": 1350,
      "range": 1351,
      "dir": 1352,
      "Ac": 1353,
      "local": 1354,
      "ons": 1355,
      "----------------": 1356,
      "case": 1357,
      "ready": 1358,
      "proper": 1359,
      "OR": 1360,
      "chang": 1361,
      "great": 1362,
      "sible": 1363,
      "cert": 1364,
      "another": 1365,
      "gen": 1366,
      "plac": 1367,
      "istr": 1368,
      "loy": 1369,
      "prom": 1370,
      "web": 1371,
      "family": 1372,
      "ks": 1373,
      "det": 1374,
      "ived": 1375,
      "bal": 1376,
      "business": 1377,
      "dri": 1378,
      "jango": 1379,
      "company": 1380,
      "match": 1381,
      "body": 1382,
      "national": 1383,
      "dev": 1384,
      "information": 1385,
      "mus": 1386,
      "100": 1387,
      "Man": 1388,
      "AR": 1389,
      "ibut": 1390,
      "turn": 1391,
      "product": 1392,
      "Car": 1393,
      "ency": 1394,
      "196": 1395,
      "without": 1396,
      "method": 1397,
      "http": 1398,
      "orig": 1399,
      "players": 1400,
      "24": 1401,
      "free": 1402,
      "John": 1403,
      "far": 1404,
      "ided": 1405,
      "May": 1406,
      "append": 1407,
      "word": 1408,
      "foot": 1409,
      "ata": 1410,
      "[\"": 1411,
      "ology": 1412,
      "Sp": 1413,
      "position": 1414,
      "face": 1415,
      "ute": 1416,
      "incre": 1417,
      "hold": 1418,
      "says": 1419,
      "train": 1420,
      "clear": 1421,
      "manag": 1422,
      "kes": 1423,
      "Ph": 1424,
      "response": 1425,
      "jor": 1426,
      "small": 1427,
      "dom": 1428,
      "index": 1429,
      "Pol": 1430,
      "ling": 1431,
      "LE": 1432,
      "ately": 1433,
      "ream": 1434,
      "iven": 1435,
      "Ã©": 1436,
      "fac": 1437,
      "ittle": 1438,
      "appro": 1439,
      "belie": 1440,
      "camp": 1441,
      "Im": 1442,
      "itch": 1443,
      "All": 1444,
      "cop": 1445,
      "cording": 1446,
      "eas": 1447,
      "Val": 1448,
      "host": 1449,
      "Sy": 1450,
      "ape": 1451,
      "invest": 1452,
      "den": 1453,
      "hum": 1454,
      "23": 1455,
      "room": 1456,
      "ards": 1457,
      "Bl": 1458,
      "interest": 1459,
      "Test": 1460,
      "until": 1461,
      "ley": 1462,
      "effect": 1463,
      "keep": 1464,
      "sever": 1465,
      "sum": 1466,
      "bit": 1467,
      "service": 1468,
      "aff": 1469,
      "ended": 1470,
      "inc": 1471,
      "ides": 1472,
      "ID": 1473,
      "non": 1474,
      "und": 1475,
      "ends": 1476,
      "must": 1477,
      "fri": 1478,
      "SE": 1479,
      "ential": 1480,
      "plan": 1481,
      "ability": 1482,
      "ify": 1483,
      "ption": 1484,
      "ground": 1485,
      "Po": 1486,
      "ped": 1487,
      "job": 1488,
      "table": 1489,
      "full": 1490,
      "Lo": 1491,
      "iver": 1492,
      "water": 1493,
      "uck": 1494,
      "une": 1495,
      "info": 1496,
      "proble": 1497,
      "What": 1498,
      "vert": 1499,
      "||": 1500,
      "bas": 1501,
      "ified": 1502,
      "activ": 1503,
      "ization": 1504,
      "ml": 1505,
      "experi": 1506,
      "States": 1507,
      "After": 1508,
      "something": 1509,
      "gg": 1510,
      "near": 1511,
      "success": 1512,
      "ler": 1513,
      "tem": 1514,
      "never": 1515,
      "ustom": 1516,
      "techn": 1517,
      "âĢĺ": 1518,
      "lar": 1519,
      "things": 1520,
      "tow": 1521,
      "ium": 1522,
      "country": 1523,
      "avail": 1524,
      "Not": 1525,
      "ali": 1526,
      "city": 1527,
      "flo": 1528,
      "IT": 1529,
      "Ob": 1530,
      "ama": 1531,
      "hard": 1532,
      "enter": 1533,
      "mil": 1534,
      "pack": 1535,
      "ork": 1536,
      "One": 1537,
      "vious": 1538,
      "area": 1539,
      "ised": 1540,
      "late": 1541,
      "cell": 1542,
      "might": 1543,
      "paren": 1544,
      "ength": 1545,
      "'re": 1546,
      "conom": 1547,
      "bin": 1548,
      "adv": 1549,
      "://": 1550,
      "vide": 1551,
      "base": 1552,
      "cer": 1553,
      "Gu": 1554,
      "content": 1555,
      "grow": 1556,
      "With": 1557,
      "{}": 1558,
      "ric": 1559,
      "ague": 1560,
      "series": 1561,
      "page": 1562,
      "sit": 1563,
      "ca": 1564,
      "Fe": 1565,
      "ones": 1566,
      "django": 1567,
      "lear": 1568,
      "house": 1569,
      "EN": 1570,
      "tra": 1571,
      "write": 1572,
      "oney": 1573,
      "bar": 1574,
      "member": 1575,
      "gin": 1576,
      "ird": 1577,
      "Ap": 1578,
      "film": 1579,
      "rem": 1580,
      "oth": 1581,
      "author": 1582,
      "output": 1583,
      "days": 1584,
      "sty": 1585,
      "ats": 1586,
      "million": 1587,
      "Ger": 1588,
      "Sc": 1589,
      "umn": 1590,
      "ele": 1591,
      "State": 1592,
      "women": 1593,
      "cost": 1594,
      "lex": 1595,
      "enn": 1596,
      "rop": 1597,
      "========": 1598,
      "Equal": 1599,
      "Euro": 1600,
      "AL": 1601,
      "ulation": 1602,
      "children": 1603,
      "Trump": 1604,
      "West": 1605,
      "better": 1606,
      "string": 1607,
      "select": 1608,
      "cas": 1609,
      "Ge": 1610,
      "consider": 1611,
      "ians": 1612,
      "World": 1613,
      "Aust": 1614,
      "cast": 1615,
      "National": 1616,
      "War": 1617,
      "eter": 1618,
      "little": 1619,
      "target": 1620,
      "course": 1621,
      "contain": 1622,
      "fail": 1623,
      "former": 1624,
      "function": 1625,
      "'d": 1626,
      "major": 1627,
      "health": 1628,
      "hal": 1629,
      "'m": 1630,
      "ured": 1631,
      "block": 1632,
      "ably": 1633,
      "members": 1634,
      "sl": 1635,
      "available": 1636,
      "Min": 1637,
      "remain": 1638,
      "Jan": 1639,
      "valid": 1640,
      "York": 1641,
      "ible": 1642,
      "empt": 1643,
      "claim": 1644,
      "status": 1645,
      "sess": 1646,
      "charac": 1647,
      "ste": 1648,
      "ply": 1649,
      "short": 1650,
      "ru": 1651,
      "close": 1652,
      "stop": 1653,
      "AC": 1654,
      "access": 1655,
      "ecut": 1656,
      "sett": 1657,
      "along": 1658,
      "feat": 1659,
      "augh": 1660,
      "sw": 1661,
      "message": 1662,
      "told": 1663,
      "itions": 1664,
      "seem": 1665,
      "ids": 1666,
      "Char": 1667,
      "night": 1668,
      "Me": 1669,
      "core": 1670,
      "Comm": 1671,
      "error": 1672,
      "away": 1673,
      "working": 1674,
      "stit": 1675,
      "Ste": 1676,
      "ype": 1677,
      "given": 1678,
      "length": 1679,
      "typ": 1680,
      "feel": 1681,
      "Str": 1682,
      "ched": 1683,
      "within": 1684,
      "Mon": 1685,
      "official": 1686,
      "box": 1687,
      "IS": 1688,
      "__(": 1689,
      "percent": 1690,
      "always": 1691,
      "reason": 1692,
      "reen": 1693,
      "command": 1694,
      "mission": 1695,
      "title": 1696,
      "():": 1697,
      "ww": 1698,
      "mult": 1699,
      "coming": 1700,
      "market": 1701,
      "ney": 1702,
      "ories": 1703,
      "image": 1704,
      "ron": 1705,
      "cal": 1706,
      "step": 1707,
      "break": 1708,
      "important": 1709,
      "abl": 1710,
      "Te": 1711,
      "Li": 1712,
      "recent": 1713,
      "making": 1714,
      "instance": 1715,
      "mid": 1716,
      "early": 1717,
      ".,": 1718,
      "offer": 1719,
      "Pres": 1720,
      "several": 1721,
      "custom": 1722,
      "angu": 1723,
      "mean": 1724,
      "band": 1725,
      "ris": 1726,
      "source": 1727,
      "imes": 1728,
      "Go": 1729,
      "Rus": 1730,
      "hy": 1731,
      "raise": 1732,
      "times": 1733,
      "connect": 1734,
      "Christ": 1735,
      "born": 1736,
      "ago": 1737,
      "################": 1738,
      "vo": 1739,
      "round": 1740,
      "whe": 1741,
      "mal": 1742,
      "sent": 1743,
      "cret": 1744,
      "].": 1745,
      "map": 1746,
      "South": 1747,
      "vari": 1748,
      "attack": 1749,
      "acy": 1750,
      "II": 1751,
      "Brit": 1752,
      "Do": 1753,
      "Dr": 1754,
      "2016": 1755,
      "My": 1756,
      "Ed": 1757,
      "following": 1758,
      "plain": 1759,
      "comes": 1760,
      "dest": 1761,
      "control": 1762,
      "uly": 1763,
      "already": 1764,
      "hour": 1765,
      "story": 1766,
      "took": 1767,
      "AM": 1768,
      "research": 1769,
      "lin": 1770,
      "death": 1771,
      "Europe": 1772,
      "ope": 1773,
      "possible": 1774,
      "60": 1775,
      "uni": 1776,
      "ternal": 1777,
      "links": 1778,
      "assertEqual": 1779,
      "lik": 1780,
      "econom": 1781,
      "example": 1782,
      "kill": 1783,
      "ference": 1784,
      "ES": 1785,
      "town": 1786,
      "wid": 1787,
      "track": 1788,
      "node": 1789,
      "27": 1790,
      "ember": 1791,
      "Mc": 1792,
      "establ": 1793,
      "Bar": 1794,
      "icle": 1795,
      "28": 1796,
      "oci": 1797,
      "music": 1798,
      "ively": 1799,
      "large": 1800,
      "often": 1801,
      "IC": 1802,
      "tax": 1803,
      "2015": 1804,
      "indow": 1805,
      "bir": 1806,
      "past": 1807,
      "AS": 1808,
      "input": 1809,
      "ted": 1810,
      "Pe": 1811,
      "tell": 1812,
      "single": 1813,
      "uture": 1814,
      "space": 1815,
      "board": 1816,
      "AP": 1817,
      "oto": 1818,
      "games": 1819,
      "bum": 1820,
      "nal": 1821,
      "special": 1822,
      "tect": 1823,
      "ben": 1824,
      "posed": 1825,
      "ai": 1826,
      "By": 1827,
      "glo": 1828,
      "bot": 1829,
      "26": 1830,
      "values": 1831,
      "sed": 1832,
      "'}": 1833,
      "color": 1834,
      "stri": 1835,
      "North": 1836,
      "ony": 1837,
      "List": 1838,
      "address": 1839,
      "century": 1840,
      "err": 1841,
      "addition": 1842,
      "video": 1843,
      "However": 1844,
      "results": 1845,
      "edit": 1846,
      "ending": 1847,
      "viron": 1848,
      "money": 1849,
      "ilt": 1850,
      "Canad": 1851,
      "2014": 1852,
      "rad": 1853,
      "compet": 1854,
      "expected": 1855,
      "ivid": 1856,
      "include": 1857,
      "Per": 1858,
      "194": 1859,
      "pot": 1860,
      "Tw": 1861,
      "became": 1862,
      "term": 1863,
      "fix": 1864,
      "kind": 1865,
      "util": 1866,
      "icy": 1867,
      "array": 1868,
      "eder": 1869,
      "hip": 1870,
      "soci": 1871,
      "email": 1872,
      "gether": 1873,
      "played": 1874,
      "give": 1875,
      "ither": 1876,
      "gn": 1877,
      "Part": 1878,
      "ken": 1879,
      "priv": 1880,
      "ison": 1881,
      "ging": 1882,
      "fic": 1883,
      "urch": 1884,
      "five": 1885,
      "wards": 1886,
      "wa": 1887,
      "super": 1888,
      "colle": 1889,
      "history": 1890,
      "Med": 1891,
      "City": 1892,
      "came": 1893,
      "ought": 1894,
      "ateg": 1895,
      "become": 1896,
      "bur": 1897,
      "scri": 1898,
      "player": 1899,
      "execut": 1900,
      "org": 1901,
      "kw": 1902,
      ".[": 1903,
      "client": 1904,
      "social": 1905,
      "names": 1906,
      "points": 1907,
      "having": 1908,
      "spl": 1909,
      "[]": 1910,
      "road": 1911,
      "ators": 1912,
      "Don": 1913,
      "auto": 1914,
      "mb": 1915,
      "sof": 1916,
      "lam": 1917,
      "\"]": 1918,
      "emo": 1919,
      "meet": 1920,
      "tag": 1921,
      "atic": 1922,
      "DE": 1923,
      "least": 1924,
      ">>": 1925,
      "oung": 1926,
      "29": 1927,
      "profess": 1928,
      "lay": 1929,
      "detail": 1930,
      "Russi": 1931,
      "curity": 1932,
      "Qu": 1933,
      "fort": 1934,
      "employ": 1935,
      "song": 1936,
      "total": 1937,
      "media": 1938,
      "options": 1939,
      "saf": 1940,
      "certain": 1941,
      "'),": 1942,
      "didn": 1943,
      "admin": 1944,
      "json": 1945,
      "exist": 1946,
      "itive": 1947,
      "today": 1948,
      "six": 1949,
      "acc": 1950,
      "bi": 1951,
      "update": 1952,
      "label": 1953,
      "files": 1954,
      "why": 1955,
      "future": 1956,
      "larg": 1957,
      "football": 1958,
      "195": 1959,
      "2017": 1960,
      "His": 1961,
      "Mod": 1962,
      "deal": 1963,
      "force": 1964,
      "works": 1965,
      "elif": 1966,
      "[],": 1967,
      "context": 1968,
      "32": 1969,
      "anal": 1970,
      "human": 1971,
      "2013": 1972,
      "style": 1973,
      "final": 1974,
      "Oc": 1975,
      "Aug": 1976,
      "roll": 1977,
      "together": 1978,
      "done": 1979,
      "sal": 1980,
      "CO": 1981,
      "urther": 1982,
      "arm": 1983,
      "sequ": 1984,
      "half": 1985,
      "Will": 1986,
      "complet": 1987,
      "aign": 1988,
      "community": 1989,
      "2012": 1990,
      "ene": 1991,
      "aft": 1992,
      "Des": 1993,
      "div": 1994,
      "March": 1995,
      "equ": 1996,
      "These": 1997,
      "wal": 1998,
      "ford": 1999,
      "langu": 2000,
      "Reg": 2001,
      "ources": 2002,
      "Fl": 2003,
      "ham": 2004,
      "president": 2005,
      "Austral": 2006,
      "love": 2007,
      "released": 2008,
      "ilar": 2009,
      "tool": 2010,
      "invol": 2011,
      "pract": 2012,
      "reach": 2013,
      "Cor": 2014,
      "da": 2015,
      "went": 2016,
      "Intern": 2017,
      "conf": 2018,
      "sho": 2019,
      "lines": 2020,
      "aring": 2021,
      "dam": 2022,
      "photo": 2023,
      "County": 2024,
      "ots": 2025,
      "trad": 2026,
      "represent": 2027,
      "Sept": 2028,
      "Gener": 2029,
      "yn": 2030,
      "sto": 2031,
      "created": 2032,
      "grad": 2033,
      "ples": 2034,
      "ctor": 2035,
      "TH": 2036,
      "once": 2037,
      "igr": 2038,
      "indust": 2039,
      "aper": 2040,
      "Apr": 2041,
      "ico": 2042,
      "aid": 2043,
      "doesn": 2044,
      "applic": 2045,
      "due": 2046,
      "Mr": 2047,
      "80": 2048,
      "ged": 2049,
      "enough": 2050,
      "started": 2051,
      "album": 2052,
      "pen": 2053,
      "lower": 2054,
      "police": 2055,
      "ded": 2056,
      "protect": 2057,
      "aut": 2058,
      "crit": 2059,
      "ane": 2060,
      "June": 2061,
      "prim": 2062,
      "hol": 2063,
      "ount": 2064,
      "Mus": 2065,
      "ding": 2066,
      "birth": 2067,
      "'.": 2068,
      "ances": 2069,
      "seen": 2070,
      "iam": 2071,
      "omet": 2072,
      "House": 2073,
      "experience": 2074,
      "Fran": 2075,
      "ino": 2076,
      "ned": 2077,
      "+=": 2078,
      "ividual": 2079,
      "among": 2080,
      "Get": 2081,
      "gress": 2082,
      "front": 2083,
      "services": 2084,
      "mor": 2085,
      "School": 2086,
      "role": 2087,
      "ps": 2088,
      "draw": 2089,
      "political": 2090,
      "news": 2091,
      "Che": 2092,
      "2010": 2093,
      "prob": 2094,
      "announ": 2095,
      "President": 2096,
      "flu": 2097,
      "ename": 2098,
      "Cont": 2099,
      "ping": 2100,
      "RO": 2101,
      "sys": 2102,
      "related": 2103,
      "Su": 2104,
      "building": 2105,
      "idence": 2106,
      "July": 2107,
      "mag": 2108,
      "previous": 2109,
      "pain": 2110,
      "April": 2111,
      "ising": 2112,
      "ming": 2113,
      "itary": 2114,
      "live": 2115,
      "compan": 2116,
      ".__": 2117,
      "fall": 2118,
      "campaign": 2119,
      "ensive": 2120,
      "means": 2121,
      "period": 2122,
      "strong": 2123,
      "active": 2124,
      "environ": 2125,
      "2011": 2126,
      "across": 2127,
      "educ": 2128,
      "99": 2129,
      "See": 2130,
      "partment": 2131,
      "held": 2132,
      "unch": 2133,
      "understand": 2134,
      "happen": 2135,
      "Au": 2136,
      "others": 2137,
      "party": 2138,
      "ana": 2139,
      "ington": 2140,
      "likely": 2141,
      "dem": 2142,
      "cult": 2143,
      "provide": 2144,
      "August": 2145,
      "added": 2146,
      "property": 2147,
      "pick": 2148,
      "actually": 2149,
      "aver": 2150,
      "specific": 2151,
      "([": 2152,
      "true": 2153,
      "built": 2154,
      "Name": 2155,
      "September": 2156,
      "copy": 2157,
      "Dav": 2158,
      "UR": 2159,
      "vot": 2160,
      "Some": 2161,
      "35": 2162,
      "ises": 2163,
      "particular": 2164,
      "pret": 2165,
      "ules": 2166,
      "abo": 2167,
      "reet": 2168,
      "ls": 2169,
      "ampion": 2170,
      "Bu": 2171,
      "task": 2172,
      "fast": 2173,
      "Her": 2174,
      "issue": 2175,
      "January": 2176,
      "individual": 2177,
      "plate": 2178,
      "question": 2179,
      "ports": 2180,
      "whether": 2181,
      "pecial": 2182,
      "odes": 2183,
      "dle": 2184,
      "fully": 2185,
      "tober": 2186,
      "received": 2187,
      "months": 2188,
      "third": 2189,
      "Type": 2190,
      "External": 2191,
      "Up": 2192,
      "While": 2193,
      "ond": 2194,
      "elev": 2195,
      "session": 2196,
      "British": 2197,
      "students": 2198,
      "formed": 2199,
      "October": 2200,
      "ung": 2201,
      "Mic": 2202,
      "imp": 2203,
      "ients": 2204,
      "Har": 2205,
      "obj": 2206,
      "Sw": 2207,
      "split": 2208,
      "doing": 2209,
      "sex": 2210,
      "looking": 2211,
      "kwargs": 2212,
      "ior": 2213,
      "account": 2214,
      "mot": 2215,
      "according": 2216,
      "sort": 2217,
      "study": 2218,
      "Set": 2219,
      "BC": 2220,
      "development": 2221,
      "64": 2222,
      "watch": 2223,
      "began": 2224,
      "][": 2225,
      "food": 2226,
      "fav": 2227,
      "ued": 2228,
      "continue": 2229,
      "bad": 2230,
      "fire": 2231,
      "aps": 2232,
      "save": 2233,
      "items": 2234,
      "Ret": 2235,
      "Cr": 2236,
      "makes": 2237,
      "common": 2238,
      "groups": 2239,
      "review": 2240,
      "moved": 2241,
      "friend": 2242,
      "Act": 2243,
      "AD": 2244,
      "character": 2245,
      "original": 2246,
      "Off": 2247,
      "zer": 2248,
      "uses": 2249,
      "exper": 2250,
      "cred": 2251,
      "Eng": 2252,
      "rate": 2253,
      "thern": 2254,
      "Dis": 2255,
      "tour": 2256,
      "33": 2257,
      "apan": 2258,
      "named": 2259,
      "black": 2260,
      "stream": 2261,
      "Hist": 2262,
      "vember": 2263,
      "Am": 2264,
      "problem": 2265,
      "quality": 2266,
      "ried": 2267,
      "November": 2268,
      "ements": 2269,
      "America": 2270,
      "ume": 2271,
      "depend": 2272,
      "())": 2273,
      "share": 2274,
      "weight": 2275,
      "required": 2276,
      "sugg": 2277,
      "pan": 2278,
      "begin": 2279,
      "west": 2280,
      "Ab": 2281,
      "suggest": 2282,
      "server": 2283,
      "lib": 2284,
      "East": 2285,
      "ination": 2286,
      "ception": 2287,
      "yet": 2288,
      "rect": 2289,
      "install": 2290,
      "words": 2291,
      "center": 2292,
      "Fil": 2293,
      "****": 2294,
      "cause": 2295,
      "ender": 2296,
      "similar": 2297,
      "aged": 2298,
      "published": 2299,
      "forman": 2300,
      "engine": 2301,
      "unit": 2302,
      "option": 2303,
      "ners": 2304,
      "na": 2305,
      "Japan": 2306,
      "Fo": 2307,
      "wer": 2308,
      "club": 2309,
      "Dece": 2310,
      "conc": 2311,
      "hom": 2312,
      "events": 2313,
      "nat": 2314,
      "either": 2315,
      "uments": 2316,
      "personal": 2317,
      "Sen": 2318,
      "Demo": 2319,
      "},": 2320,
      "young": 2321,
      "Key": 2322,
      "thon": 2323,
      "December": 2324,
      "Engl": 2325,
      "mic": 2326,
      "query": 2327,
      "career": 2328,
      "ift": 2329,
      "Sun": 2330,
      "thought": 2331,
      "wood": 2332,
      "fight": 2333,
      "filter": 2334,
      "language": 2335,
      "English": 2336,
      "viol": 2337,
      "era": 2338,
      "aterial": 2339,
      "Red": 2340,
      "hor": 2341,
      "document": 2342,
      "ined": 2343,
      "San": 2344,
      "45": 2345,
      "utes": 2346,
      "general": 2347,
      "Just": 2348,
      "tries": 2349,
      "legal": 2350,
      "ills": 2351,
      "90": 2352,
      "getting": 2353,
      "taken": 2354,
      "har": 2355,
      "sib": 2356,
      "online": 2357,
      "ae": 2358,
      "initial": 2359,
      "pie": 2360,
      "associ": 2361,
      "ribut": 2362,
      "almost": 2363,
      "store": 2364,
      "meas": 2365,
      "bank": 2366,
      "sen": 2367,
      "``": 2368,
      "Je": 2369,
      "appear": 2370,
      "collect": 2371,
      "'ve": 2372,
      "itter": 2373,
      "King": 2374,
      "bug": 2375,
      "duct": 2376,
      "iple": 2377,
      "dep": 2378,
      "ently": 2379,
      "reported": 2380,
      "Afr": 2381,
      "relation": 2382,
      "mom": 2383,
      "Ear": 2384,
      "release": 2385,
      "TV": 2386,
      "itted": 2387,
      "objects": 2388,
      "dou": 2389,
      "etime": 2390,
      "'],": 2391,
      "quick": 2392,
      "reco": 2393,
      "ED": 2394,
      "uation": 2395,
      "rand": 2396,
      "atter": 2397,
      "From": 2398,
      "ban": 2399,
      "2008": 2400,
      "attle": 2401,
      "html": 2402,
      "League": 2403,
      "Data": 2404,
      "msg": 2405,
      "'''": 2406,
      "plement": 2407,
      "Pa": 2408,
      "anim": 2409,
      "ee": 2410,
      "needs": 2411,
      "Wal": 2412,
      "forms": 2413,
      "election": 2414,
      "IP": 2415,
      "avel": 2416,
      "2009": 2417,
      "white": 2418,
      "ival": 2419,
      "UT": 2420,
      "sound": 2421,
      "2018": 2422,
      "above": 2423,
      "cil": 2424,
      "mind": 2425,
      "column": 2426,
      "bert": 2427,
      "mod": 2428,
      "gun": 2429,
      "website": 2430,
      "70": 2431,
      "anc": 2432,
      "frame": 2433,
      "Add": 2434,
      "attempt": 2435,
      "fill": 2436,
      "High": 2437,
      "hind": 2438,
      "security": 2439,
      "further": 2440,
      "actions": 2441,
      "ederal": 2442,
      "accept": 2443,
      "companies": 2444,
      "iding": 2445,
      "31": 2446,
      "parent": 2447,
      "lete": 2448,
      "Fir": 2449,
      "taking": 2450,
      "itten": 2451,
      "dig": 2452,
      "(),": 2453,
      "ables": 2454,
      "migr": 2455,
      "Now": 2456,
      "redu": 2457,
      "36": 2458,
      "speak": 2459,
      "served": 2460,
      "asked": 2461,
      "flow": 2462,
      "ache": 2463,
      "running": 2464,
      "rown": 2465,
      "MP": 2466,
      "Cent": 2467,
      "pose": 2468,
      "Park": 2469,
      "Sm": 2470,
      "location": 2471,
      "phone": 2472,
      "card": 2473,
      "however": 2474,
      "teach": 2475,
      "Lon": 2476,
      "cir": 2477,
      "Air": 2478,
      "settings": 2479,
      "Democr": 2480,
      "cm": 2481,
      "features": 2482,
      "ffer": 2483,
      "investig": 2484,
      "van": 2485,
      "signific": 2486,
      "performan": 2487,
      "jour": 2488,
      "types": 2489,
      "policy": 2490,
      "rench": 2491,
      "discus": 2492,
      "ald": 2493,
      "issues": 2494,
      "buy": 2495,
      "itor": 2496,
      "ete": 2497,
      "ands": 2498,
      "treat": 2499,
      "send": 2500,
      "Cour": 2501,
      "benef": 2502,
      "CH": 2503,
      "drop": 2504,
      "fre": 2505,
      "pred": 2506,
      "chall": 2507,
      "Febr": 2508,
      "selves": 2509,
      "Ma": 2510,
      "decl": 2511,
      "Time": 2512,
      "February": 2513,
      "ker": 2514,
      "cand": 2515,
      "wide": 2516,
      "joy": 2517,
      "agre": 2518,
      "modu": 2519,
      "module": 2520,
      "idea": 2521,
      "office": 2522,
      "struction": 2523,
      "LO": 2524,
      "rew": 2525,
      "changes": 2526,
      "El": 2527,
      "below": 2528,
      "material": 2529,
      "plot": 2530,
      "idge": 2531,
      "imate": 2532,
      "bring": 2533,
      "filename": 2534,
      "nes": 2535,
      "entire": 2536,
      "clean": 2537,
      "ott": 2538,
      "prove": 2539,
      "ification": 2540,
      "commit": 2541,
      "shape": 2542,
      "hours": 2543,
      "anch": 2544,
      "Art": 2545,
      "quar": 2546,
      "ief": 2547,
      "inste": 2548,
      "states": 2549,
      "FI": 2550,
      "api": 2551,
      "court": 2552,
      "section": 2553,
      "Trans": 2554,
      "root": 2555,
      "stor": 2556,
      "nia": 2557,
      "ET": 2558,
      "military": 2559,
      "potential": 2560,
      "Hol": 2561,
      "UN": 2562,
      "uel": 2563,
      "Serv": 2564,
      "included": 2565,
      "termin": 2566,
      "ston": 2567,
      "spo": 2568,
      "params": 2569,
      "oud": 2570,
      "global": 2571,
      "mit": 2572,
      "Met": 2573,
      "File": 2574,
      "rather": 2575,
      "require": 2576,
      "located": 2577,
      "believe": 2578,
      "tee": 2579,
      "ops": 2580,
      "First": 2581,
      "exc": 2582,
      "users": 2583,
      "34": 2584,
      "iday": 2585,
      "pair": 2586,
      "ires": 2587,
      "mass": 2588,
      "gain": 2589,
      "ctions": 2590,
      "unity": 2591,
      "Wash": 2592,
      "rout": 2593,
      "TO": 2594,
      "istration": 2595,
      "Colle": 2596,
      "medi": 2597,
      "comment": 2598,
      "chann": 2599,
      "God": 2600,
      "environment": 2601,
      "ivil": 2602,
      "popular": 2603,
      "tware": 2604,
      "rote": 2605,
      "ION": 2606,
      "screen": 2607,
      "refer": 2608,
      "inj": 2609,
      "subject": 2610,
      "China": 2611,
      "ille": 2612,
      "playing": 2613,
      "ses": 2614,
      "Fin": 2615,
      "population": 2616,
      "entry": 2617,
      "deb": 2618,
      "phys": 2619,
      "loss": 2620,
      "ships": 2621,
      "aving": 2622,
      "network": 2623,
      "London": 2624,
      "living": 2625,
      "rights": 2626,
      "graphy": 2627,
      "Our": 2628,
      "production": 2629,
      "energy": 2630,
      "behind": 2631,
      "ilities": 2632,
      "forward": 2633,
      "ension": 2634,
      "ties": 2635,
      "contact": 2636,
      "plat": 2637,
      "Sch": 2638,
      "moder": 2639,
      "isn": 2640,
      "via": 2641,
      "37": 2642,
      "device": 2643,
      "price": 2644,
      "parse": 2645,
      "Group": 2646,
      "squ": 2647,
      "ention": 2648,
      "comput": 2649,
      "star": 2650,
      "ites": 2651,
      "tre": 2652,
      "wanted": 2653,
      "written": 2654,
      "General": 2655,
      "iment": 2656,
      "private": 2657,
      "Value": 2658,
      "German": 2659,
      "Dev": 2660,
      "pet": 2661,
      "ov": 2662,
      "mode": 2663,
      "umb": 2664,
      "df": 2665,
      "intro": 2666,
      "Def": 2667,
      "distr": 2668,
      "MA": 2669,
      "various": 2670,
      "asing": 2671,
      "uff": 2672,
      "((": 2673,
      "wrote": 2674,
      "trying": 2675,
      "cket": 2676,
      "38": 2677,
      "Rom": 2678,
      "amount": 2679,
      "Publ": 2680,
      "simple": 2681,
      "mail": 2682,
      "Washington": 2683,
      "particip": 2684,
      "French": 2685,
      "industry": 2686,
      "inv": 2687,
      "shot": 2688,
      "hot": 2689,
      "contract": 2690,
      "dy": 2691,
      "anti": 2692,
      "needed": 2693,
      "hon": 2694,
      "lost": 2695,
      "Pal": 2696,
      "inte": 2697,
      "sold": 2698,
      "anything": 2699,
      "People": 2700,
      "significant": 2701,
      "syn": 2702,
      "rac": 2703,
      "ience": 2704,
      "2007": 2705,
      "Of": 2706,
      "float": 2707,
      "station": 2708,
      "coach": 2709,
      "Inter": 2710,
      "ges": 2711,
      "ouch": 2712,
      "Lab": 2713,
      "stay": 2714,
      "Mark": 2715,
      "hit": 2716,
      "whole": 2717,
      "spir": 2718,
      "!=": 2719,
      "cul": 2720,
      "Cali": 2721,
      "express": 2722,
      "rael": 2723,
      "lic": 2724,
      "instead": 2725,
      "complete": 2726,
      "unique": 2727,
      "().": 2728,
      "ancial": 2729,
      "Phil": 2730,
      "gar": 2731,
      "talk": 2732,
      ".)": 2733,
      "worth": 2734,
      "La": 2735,
      "training": 2736,
      "necess": 2737,
      "outside": 2738,
      "rain": 2739,
      "eters": 2740,
      "ule": 2741,
      "cs": 2742,
      "visit": 2743,
      "uge": 2744,
      "covered": 2745,
      "International": 2746,
      "international": 2747,
      "father": 2748,
      "William": 2749,
      "aud": 2750,
      "shows": 2751,
      "Israel": 2752,
      "easy": 2753,
      "</": 2754,
      "Bel": 2755,
      "concern": 2756,
      "goal": 2757,
      "someone": 2758,
      "staff": 2759,
      "contribut": 2760,
      "window": 2761,
      "Ho": 2762,
      "worked": 2763,
      "respect": 2764,
      "sus": 2765,
      "elevision": 2766,
      "anger": 2767,
      "probably": 2768,
      "opport": 2769,
      "HT": 2770,
      "minutes": 2771,
      "sn": 2772,
      "resh": 2773,
      "mov": 2774,
      "approach": 2775,
      "Califor": 2776,
      "ades": 2777,
      "bon": 2778,
      "spect": 2779,
      "leaders": 2780,
      "uk": 2781,
      "pecially": 2782,
      "areas": 2783,
      "region": 2784,
      "placed": 2785,
      "jud": 2786,
      "sat": 2787,
      "NO": 2788,
      "especially": 2789,
      "products": 2790,
      "Return": 2791,
      "everything": 2792,
      "parts": 2793,
      "woman": 2794,
      "average": 2795,
      "0000": 2796,
      "announced": 2797,
      "bound": 2798,
      "assist": 2799,
      "avy": 2800,
      "ogle": 2801,
      "pite": 2802,
      "Indian": 2803,
      "separ": 2804,
      "TE": 2805,
      "Play": 2806,
      "ficult": 2807,
      "tor": 2808,
      "explain": 2809,
      "ING": 2810,
      "candid": 2811,
      "decision": 2812,
      "ari": 2813,
      "California": 2814,
      "vill": 2815,
      "David": 2816,
      "extra": 2817,
      "White": 2818,
      "Del": 2819,
      "Paul": 2820,
      "established": 2821,
      "firm": 2822,
      "ases": 2823,
      "capt": 2824,
      "famil": 2825,
      "Black": 2826,
      "fem": 2827,
      "parser": 2828,
      "performance": 2829,
      "saw": 2830,
      "39": 2831,
      "DO": 2832,
      "Obama": 2833,
      "roy": 2834,
      "2006": 2835,
      "2000": 2836,
      "matter": 2837,
      "Ang": 2838,
      "temp": 2839,
      "gets": 2840,
      "hood": 2841,
      "indic": 2842,
      "categ": 2843,
      "random": 2844,
      "countries": 2845,
      "died": 2846,
      "'}),": 2847,
      "difficult": 2848,
      "Sim": 2849,
      "ani": 2850,
      "nothing": 2851,
      "changed": 2852,
      "mock": 2853,
      "reading": 2854,
      "pers": 2855,
      "Out": 2856,
      "lier": 2857,
      "mix": 2858,
      "threat": 2859,
      "Pat": 2860,
      "broad": 2861,
      "ries": 2862,
      "terms": 2863,
      "itself": 2864,
      "script": 2865,
      "Sub": 2866,
      "2019": 2867,
      "....": 2868,
      "regular": 2869,
      "India": 2870,
      "tic": 2871,
      "European": 2872,
      "heart": 2873,
      "recogn": 2874,
      "rup": 2875,
      "istic": 2876,
      "01": 2877,
      "ij": 2878,
      "ishing": 2879,
      "::": 2880,
      "flag": 2881,
      "According": 2882,
      "'ll": 2883,
      "Fore": 2884,
      "fit": 2885,
      "gir": 2886,
      "Ã¡": 2887,
      "'])": 2888,
      "introdu": 2889,
      "exam": 2890,
      "orge": 2891,
      "www": 2892,
      "keys": 2893,
      "display": 2894,
      "75": 2895,
      "charg": 2896,
      "verse": 2897,
      "attribut": 2898,
      "primary": 2899,
      "soon": 2900,
      "currently": 2901,
      "tests": 2902,
      "uration": 2903,
      "sil": 2904,
      "himself": 2905,
      "ellow": 2906,
      "stant": 2907,
      "--------------------------------": 2908,
      "Canada": 2909,
      "provided": 2910,
      "itional": 2911,
      "Department": 2912,
      "article": 2913,
      "omb": 2914,
      "cup": 2915,
      "cases": 2916,
      "histor": 2917,
      "distribut": 2918,
      "saying": 2919,
      "aves": 2920,
      "SS": 2921,
      "CT": 2922,
      "dim": 2923,
      "speed": 2924,
      "mach": 2925,
      "align": 2926,
      "consum": 2927,
      "AA": 2928,
      "secret": 2929,
      "Py": 2930,
      "wall": 2931,
      "correct": 2932,
      "ering": 2933,
      "sor": 2934,
      "appoint": 2935,
      "simply": 2936,
      "UK": 2937,
      "Ital": 2938,
      "friends": 2939,
      "details": 2940,
      "technology": 2941,
      "hop": 2942,
      "mis": 2943,
      "atives": 2944,
      "sets": 2945,
      "remove": 2946,
      "described": 2947,
      "perfect": 2948,
      "PO": 2949,
      "description": 2950,
      "tree": 2951,
      "iction": 2952,
      "push": 2953,
      "datetime": 2954,
      "occur": 2955,
      "ordin": 2956,
      "ware": 2957,
      "Cap": 2958,
      "za": 2959,
      "origin": 2960,
      "explo": 2961,
      "focus": 2962,
      "Associ": 2963,
      "cam": 2964,
      "higher": 2965,
      "Day": 2966,
      "register": 2967,
      "corpor": 2968,
      "species": 2969,
      "ring": 2970,
      "wish": 2971,
      "Port": 2972,
      "ceed": 2973,
      "lands": 2974,
      "films": 2975,
      "Center": 2976,
      "Pho": 2977,
      "door": 2978,
      ".\"\"\"": 2979,
      "coup": 2980,
      "oding": 2981,
      "Ber": 2982,
      "imum": 2983,
      "arri": 2984,
      "favor": 2985,
      "mother": 2986,
      "Comp": 2987,
      "template": 2988,
      "Spe": 2989,
      "Cre": 2990,
      "director": 2991,
      "More": 2992,
      "itting": 2993,
      "500": 2994,
      "teams": 2995,
      "pict": 2996,
      "XX": 2997,
      "writing": 2998,
      "Stud": 2999,
      "FC": 3000,
      "elt": 3001,
      "patch": 3002,
      "normal": 3003,
      "Party": 3004,
      "district": 3005,
      "purch": 3006,
      "Pri": 3007,
      "aging": 3008,
      "Mal": 3009,
      "iff": 3010,
      "During": 3011,
      "College": 3012,
      "prior": 3013,
      "width": 3014,
      "learn": 3015,
      "olution": 3016,
      "ky": 3017,
      "Read": 3018,
      "race": 3019,
      "Bro": 3020,
      "regard": 3021,
      "cannot": 3022,
      "longer": 3023,
      "ux": 3024,
      "earch": 3025,
      "cross": 3026,
      "CE": 3027,
      "note": 3028,
      "argument": 3029,
      "Here": 3030,
      "application": 3031,
      "quite": 3032,
      "65": 3033,
      "themselves": 3034,
      "Post": 3035,
      "IL": 3036,
      "enjoy": 3037,
      "iers": 3038,
      "cat": 3039,
      "AB": 3040,
      "User": 3041,
      "sche": 3042,
      "44": 3043,
      "Sat": 3044,
      "ML": 3045,
      "================": 3046,
      "influ": 3047,
      "Sam": 3048,
      "ometimes": 3049,
      "Street": 3050,
      "financial": 3051,
      "blank": 3052,
      "nation": 3053,
      "Mor": 3054,
      "bill": 3055,
      "Ben": 3056,
      "feature": 3057,
      "seems": 3058,
      "News": 3059,
      "problems": 3060,
      "weeks": 3061,
      "Rev": 3062,
      "Many": 3063,
      "answer": 3064,
      "allowed": 3065,
      "token": 3066,
      "sle": 3067,
      "ological": 3068,
      "Id": 3069,
      "tom": 3070,
      "manager": 3071,
      "sem": 3072,
      "epis": 3073,
      "labor": 3074,
      "ny": 3075,
      "env": 3076,
      "statement": 3077,
      "proved": 3078,
      "questions": 3079,
      "involved": 3080,
      "blo": 3081,
      "connection": 3082,
      "hib": 3083,
      "plann": 3084,
      "takes": 3085,
      "Text": 3086,
      "mob": 3087,
      "pool": 3088,
      "Sal": 3089,
      "ME": 3090,
      "relig": 3091,
      "deep": 3092,
      "rap": 3093,
      "gs": 3094,
      "interview": 3095,
      "drug": 3096,
      "everyone": 3097,
      "Base": 3098,
      "James": 3099,
      "education": 3100,
      "professional": 3101,
      "Mid": 3102,
      "pretty": 3103,
      "books": 3104,
      "onto": 3105,
      "aries": 3106,
      "pattern": 3107,
      "logger": 3108,
      "systems": 3109,
      "Sup": 3110,
      "cel": 3111,
      "isl": 3112,
      "ike": 3113,
      "increase": 3114,
      "avo": 3115,
      "natural": 3116,
      "Australia": 3117,
      "Net": 3118,
      "icles": 3119,
      "unk": 3120,
      "cu": 3121,
      "stage": 3122,
      "inside": 3123,
      "logging": 3124,
      "oil": 3125,
      "gas": 3126,
      "cit": 3127,
      "tools": 3128,
      "____": 3129,
      "paper": 3130,
      "standard": 3131,
      "48": 3132,
      "Ð¾": 3133,
      "includes": 3134,
      "2005": 3135,
      "impact": 3136,
      "render": 3137,
      "ysis": 3138,
      "ode": 3139,
      "null": 3140,
      "leading": 3141,
      "Mag": 3142,
      "lement": 3143,
      "!!": 3144,
      "sens": 3145,
      "scale": 3146,
      "FA": 3147,
      "Em": 3148,
      "Ra": 3149,
      "neigh": 3150,
      "communic": 3151,
      "Cam": 3152,
      "inton": 3153,
      "Gover": 3154,
      "istrict": 3155,
      "economic": 3156,
      "download": 3157,
      "Class": 3158,
      "craft": 3159,
      "progress": 3160,
      "federal": 3161,
      "feed": 3162,
      "History": 3163,
      "sense": 3164,
      "Rich": 3165,
      "combin": 3166,
      "utions": 3167,
      "evidence": 3168,
      "Cur": 3169,
      "Court": 3170,
      "Face": 3171,
      "multiple": 3172,
      "exact": 3173,
      "wise": 3174,
      "atory": 3175,
      "seven": 3176,
      "modern": 3177,
      "shop": 3178,
      "sched": 3179,
      "considered": 3180,
      "travel": 3181,
      "improve": 3182,
      "https": 3183,
      "compon": 3184,
      "achie": 3185,
      "Republic": 3186,
      "trade": 3187,
      "ips": 3188,
      "liter": 3189,
      "scient": 3190,
      "east": 3191,
      "Over": 3192,
      "church": 3193,
      "implement": 3194,
      "Que": 3195,
      "idents": 3196,
      "ament": 3197,
      "veh": 3198,
      "designed": 3199,
      "Champion": 3200,
      "izing": 3201,
      "Cong": 3202,
      "brary": 3203,
      "District": 3204,
      "element": 3205,
      "leave": 3206,
      "ado": 3207,
      "MO": 3208,
      "sq": 3209,
      "Tex": 3210,
      "urs": 3211,
      "Cup": 3212,
      "xy": 3213,
      "affect": 3214,
      "nd": 3215,
      "software": 3216,
      "190": 3217,
      ");": 3218,
      "ledge": 3219,
      "AG": 3220,
      "Mil": 3221,
      "recently": 3222,
      "Russian": 3223,
      "spr": 3224,
      "aster": 3225,
      "emer": 3226,
      "enced": 3227,
      "acqu": 3228,
      "consist": 3229,
      "fan": 3230,
      "dead": 3231,
      "Pre": 3232,
      "rian": 3233,
      "crim": 3234,
      "vote": 3235,
      "usually": 3236,
      "replace": 3237,
      "risk": 3238,
      "gave": 3239,
      "hope": 3240,
      "hous": 3241,
      "television": 3242,
      "rc": 3243,
      "Jer": 3244,
      "decided": 3245,
      "Tur": 3246,
      "reve": 3247,
      "sion": 3248,
      "independ": 3249,
      "Miss": 3250,
      "ãģ": 3251,
      "iet": 3252,
      "tx": 3253,
      "FL": 3254,
      "Cal": 3255,
      "clus": 3256,
      "omen": 3257,
      "plied": 3258,
      "moment": 3259,
      "\"),": 3260,
      "walk": 3261,
      "upon": 3262,
      "equal": 3263,
      "CON": 3264,
      "England": 3265,
      "immedi": 3266,
      "births": 3267,
      "wrong": 3268,
      "lying": 3269,
      "tract": 3270,
      "ida": 3271,
      "hael": 3272,
      "IR": 3273,
      "north": 3274,
      "plant": 3275,
      "capital": 3276,
      "rit": 3277,
      "aily": 3278,
      "Ke": 3279,
      "additional": 3280,
      "utils": 3281,
      "Google": 3282,
      "Check": 3283,
      "south": 3284,
      "rock": 3285,
      "debug": 3286,
      "Mac": 3287,
      "55": 3288,
      "safe": 3289,
      "Exception": 3290,
      "returned": 3291,
      "Prof": 3292,
      "sec": 3293,
      "places": 3294,
      "ns": 3295,
      "George": 3296,
      "letter": 3297,
      "Green": 3298,
      "produced": 3299,
      "Mart": 3300,
      "channel": 3301,
      "seek": 3302,
      "tes": 3303,
      "password": 3304,
      "ga": 3305,
      "MS": 3306,
      "limit": 3307,
      "Thom": 3308,
      "serious": 3309,
      "conv": 3310,
      "'))": 3311,
      "Other": 3312,
      "stitute": 3313,
      "ights": 3314,
      "suit": 3315,
      "})": 3316,
      "Most": 3317,
      "ville": 3318,
      "civil": 3319,
      "Hill": 3320,
      "icip": 3321,
      "OS": 3322,
      "rid": 3323,
      "Public": 3324,
      "2004": 3325,
      "Jack": 3326,
      "PS": 3327,
      "collection": 3328,
      "ufact": 3329,
      "Model": 3330,
      "fair": 3331,
      "strip": 3332,
      "ountain": 3333,
      "writer": 3334,
      "ray": 3335,
      "numbers": 3336,
      "beaut": 3337,
      "conduct": 3338,
      "score": 3339,
      "tick": 3340,
      "lack": 3341,
      "shoot": 3342,
      "click": 3343,
      "Log": 3344,
      "button": 3345,
      "isinstance": 3346,
      "vey": 3347,
      "sco": 3348,
      "func": 3349,
      "continued": 3350,
      "plug": 3351,
      "audi": 3352,
      "wait": 3353,
      "Direct": 3354,
      "Window": 3355,
      "istry": 3356,
      "middle": 3357,
      "throughout": 3358,
      "billion": 3359,
      "View": 3360,
      "zz": 3361,
      "UL": 3362,
      "bul": 3363,
      "havi": 3364,
      "signed": 3365,
      "pi": 3366,
      "Vir": 3367,
      "hair": 3368,
      "sites": 3369,
      "choice": 3370,
      "88": 3371,
      "hab": 3372,
      "stock": 3373,
      "mention": 3374,
      "earlier": 3375,
      "organization": 3376,
      "Star": 3377,
      "Your": 3378,
      "Ð°": 3379,
      "meeting": 3380,
      "Congress": 3381,
      "neg": 3382,
      "prep": 3383,
      "ram": 3384,
      "student": 3385,
      "vic": 3386,
      "Since": 3387,
      "Found": 3388,
      "Even": 3389,
      "master": 3390,
      "[:": 3391,
      "lean": 3392,
      "officials": 3393,
      "wasn": 3394,
      "Let": 3395,
      "recomm": 3396,
      "Fol": 3397,
      "Council": 3398,
      "whose": 3399,
      "parents": 3400,
      "uth": 3401,
      "rules": 3402,
      "counter": 3403,
      "ENT": 3404,
      "killed": 3405,
      "Church": 3406,
      "raw": 3407,
      "prevent": 3408,
      "Clinton": 3409,
      "complex": 3410,
      "passed": 3411,
      "River": 3412,
      "Law": 3413,
      "IG": 3414,
      "ager": 3415,
      "akes": 3416,
      "49": 3417,
      "spital": 3418,
      "cis": 3419,
      "images": 3420,
      "chan": 3421,
      "Tor": 3422,
      "python": 3423,
      "cmd": 3424,
      "cache": 3425,
      "Oly": 3426,
      "Michael": 3427,
      "String": 3428,
      "frequ": 3429,
      "ality": 3430,
      "elebr": 3431,
      "bs": 3432,
      "promot": 3433,
      "France": 3434,
      "lives": 3435,
      "handle": 3436,
      "Facebook": 3437,
      "cls": 3438,
      "Image": 3439,
      "maintain": 3440,
      "gest": 3441,
      "Thank": 3442,
      "Russia": 3443,
      "levels": 3444,
      "delete": 3445,
      "management": 3446,
      "science": 3447,
      "stra": 3448,
      "background": 3449,
      "yp": 3450,
      "wife": 3451,
      "nov": 3452,
      "Roy": 3453,
      "platform": 3454,
      "Kore": 3455,
      "inese": 3456,
      "surpr": 3457,
      "aled": 3458,
      "->": 3459,
      "developed": 3460,
      "eight": 3461,
      "Asi": 3462,
      "2020": 3463,
      "Then": 3464,
      "failed": 3465,
      "Olymp": 3466,
      "alleg": 3467,
      "integr": 3468,
      "Sum": 3469,
      "Super": 3470,
      "aughter": 3471,
      "chain": 3472,
      "plans": 3473,
      "soft": 3474,
      "workers": 3475,
      "latest": 3476,
      "anyone": 3477,
      "operation": 3478,
      "nom": 3479,
      "Hel": 3480,
      "counts": 3481,
      "although": 3482,
      "growth": 3483,
      "bud": 3484,
      "practice": 3485,
      "nu": 3486,
      "moving": 3487,
      "Photo": 3488,
      "etc": 3489,
      "journal": 3490,
      "publican": 3491,
      "Service": 3492,
      "rich": 3493,
      "ara": 3494,
      "turned": 3495,
      "lease": 3496,
      "OP": 3497,
      "domain": 3498,
      "Union": 3499,
      "possib": 3500,
      "abase": 3501,
      "rule": 3502,
      "Sing": 3503,
      "Div": 3504,
      "medical": 3505,
      "Mer": 3506,
      "edge": 3507,
      "tro": 3508,
      "itar": 3509,
      "haps": 3510,
      "spent": 3511,
      "Well": 3512,
      "Ðµ": 3513,
      "opened": 3514,
      "Sto": 3515,
      "smo": 3516,
      "reli": 3517,
      "cing": 3518,
      "Ham": 3519,
      "establish": 3520,
      "quickly": 3521,
      "Mex": 3522,
      "award": 3523,
      "aces": 3524,
      "ees": 3525,
      "useum": 3526,
      "sou": 3527,
      "male": 3528,
      "foreign": 3529,
      "repe": 3530,
      "sell": 3531,
      "conditions": 3532,
      "Qt": 3533,
      "PC": 3534,
      "modif": 3535,
      "Chinese": 3536,
      "Year": 3537,
      "Every": 3538,
      "goes": 3539,
      "couple": 3540,
      "icans": 3541,
      "iful": 3542,
      "orm": 3543,
      "cru": 3544,
      "Book": 3545,
      "wel": 3546,
      "Gold": 3547,
      "starting": 3548,
      "aur": 3549,
      "successful": 3550,
      "weet": 3551,
      "limited": 3552,
      "giving": 3553,
      "necessary": 3554,
      "Men": 3555,
      "Oh": 3556,
      "Ã³": 3557,
      "Twitter": 3558,
      "forces": 3559,
      "nearly": 3560,
      "reports": 3561,
      "Open": 3562,
      "Texas": 3563,
      "piece": 3564,
      "Bay": 3565,
      "Republican": 3566,
      "oring": 3567,
      "appeared": 3568,
      "Lou": 3569,
      "arily": 3570,
      "Sci": 3571,
      "encies": 3572,
      "leader": 3573,
      "deg": 3574,
      "sam": 3575,
      "expand": 3576,
      "summer": 3577,
      "################################": 3578,
      "Germany": 3579,
      "thus": 3580,
      "Web": 3581,
      "66": 3582,
      "mbol": 3583,
      "zon": 3584,
      "movement": 3585,
      "central": 3586,
      "Tom": 3587,
      "Loc": 3588,
      "behavi": 3589,
      "Are": 3590,
      "47": 3591,
      "deliver": 3592,
      "header": 3593,
      "aking": 3594,
      "cook": 3595,
      "Friday": 3596,
      "2003": 3597,
      "thor": 3598,
      "resources": 3599,
      "bey": 3600,
      "provides": 3601,
      "finally": 3602,
      "anced": 3603,
      "missing": 3604,
      "brought": 3605,
      "ius": 3606,
      "profile": 3607,
      "Flor": 3608,
      "dated": 3609,
      "height": 3610,
      "green": 3611,
      "lif": 3612,
      "exists": 3613,
      "aint": 3614,
      "ws": 3615,
      "ech": 3616,
      "ensure": 3617,
      "Run": 3618,
      "controll": 3619,
      "blog": 3620,
      "ria": 3621,
      "prison": 3622,
      "itect": 3623,
      "Ver": 3624,
      "quarter": 3625,
      "commer": 3626,
      "Lu": 3627,
      "'):": 3628,
      "rot": 3629,
      "joined": 3630,
      "manufact": 3631,
      "touch": 3632,
      "BA": 3633,
      "figure": 3634,
      "ya": 3635,
      "calls": 3636,
      "'\\": 3637,
      "projects": 3638,
      "voc": 3639,
      "demon": 3640,
      "oll": 3641,
      "brand": 3642,
      "schools": 3643,
      "largest": 3644,
      "perform": 3645,
      "cript": 3646,
      "Association": 3647,
      "gold": 3648,
      "receive": 3649,
      "strict": 3650,
      "CD": 3651,
      "directory": 3652,
      "analysis": 3653,
      "construction": 3654,
      "FF": 3655,
      "sometimes": 3656,
      "sch": 3657,
      "rupt": 3658,
      "fa": 3659,
      "Press": 3660,
      "iles": 3661,
      "|-": 3662,
      "units": 3663,
      "Canadian": 3664,
      "gent": 3665,
      "2001": 3666,
      "eval": 3667,
      "mas": 3668,
      "package": 3669,
      "attention": 3670,
      "sample": 3671,
      "ening": 3672,
      "chance": 3673,
      "astic": 3674,
      "berg": 3675,
      "Alex": 3676,
      "felt": 3677,
      "relationship": 3678,
      "Rel": 3679,
      "Christian": 3680,
      "Num": 3681,
      "celebr": 3682,
      "vision": 3683,
      "Angel": 3684,
      "paid": 3685,
      "novel": 3686,
      "ÃŃ": 3687,
      "95": 3688,
      "culture": 3689,
      "structure": 3690,
      "rat": 3691,
      "hi": 3692,
      "league": 3693,
      "directly": 3694,
      "instit": 3695,
      "characters": 3696,
      "mill": 3697,
      "closed": 3698,
      "situation": 3699,
      "slow": 3700,
      "Mat": 3701,
      "Case": 3702,
      "charge": 3703,
      "Bill": 3704,
      "rix": 3705,
      "Islam": 3706,
      "Scott": 3707,
      "surv": 3708,
      "condition": 3709,
      "views": 3710,
      "TR": 3711,
      "prem": 3712,
      "arrest": 3713,
      "finished": 3714,
      "offers": 3715,
      "lamb": 3716,
      "aught": 3717,
      "Arch": 3718,
      "Although": 3719,
      "hest": 3720,
      "Hand": 3721,
      "movie": 3722,
      "activity": 3723,
      "abs": 3724,
      "politic": 3725,
      "bour": 3726,
      "equip": 3727,
      "fs": 3728,
      "demo": 3729,
      "std": 3730,
      "drive": 3731,
      "demand": 3732,
      "thous": 3733,
      "sych": 3734,
      "67": 3735,
      "2002": 3736,
      "ander": 3737,
      "ota": 3738,
      "Ass": 3739,
      "lap": 3740,
      "Mad": 3741,
      "defe": 3742,
      "Best": 3743,
      "looks": 3744,
      "42": 3745,
      "Cop": 3746,
      "venue": 3747,
      "ened": 3748,
      "launch": 3749,
      "Mem": 3750,
      "CharField": 3751,
      "Two": 3752,
      "mm": 3753,
      "HO": 3754,
      "rec": 3755,
      "allows": 3756,
      "Back": 3757,
      "lip": 3758,
      "village": 3759,
      "inner": 3760,
      "jobs": 3761,
      "wonder": 3762,
      "rank": 3763,
      "chair": 3764,
      "assign": 3765,
      "Inde": 3766,
      "concept": 3767,
      "Ã¼": 3768,
      "elected": 3769,
      "standing": 3770,
      ">>>": 3771,
      "sleep": 3772,
      "ost": 3773,
      "nel": 3774,
      "irection": 3775,
      "1990": 3776,
      "Australian": 3777,
      "opportunity": 3778,
      "mes": 3779,
      "owner": 3780,
      "towards": 3781,
      "strate": 3782,
      "followed": 3783,
      "PE": 3784,
      "awa": 3785,
      "Wed": 3786,
      "Call": 3787,
      "izer": 3788,
      "morning": 3789,
      "computer": 3790,
      "stone": 3791,
      "starts": 3792,
      "estim": 3793,
      "resource": 3794,
      "positive": 3795,
      "weap": 3796,
      "fans": 3797,
      "enge": 3798,
      "spot": 3799,
      "existing": 3800,
      "terror": 3801,
      "transl": 3802,
      "supported": 3803,
      "Times": 3804,
      "icon": 3805,
      "IV": 3806,
      "setup": 3807,
      "ka": 3808,
      "absol": 3809,
      "Sunday": 3810,
      "Vol": 3811,
      "utf": 3812,
      "effic": 3813,
      "isions": 3814,
      "hash": 3815,
      "completed": 3816,
      "families": 3817,
      "Stat": 3818,
      "college": 3819,
      "dates": 3820,
      "suffer": 3821,
      "voice": 3822,
      "Americans": 3823,
      "carry": 3824,
      "prop": 3825,
      "pk": 3826,
      "URL": 3827,
      "Tri": 3828,
      "grid": 3829,
      "transfer": 3830,
      "orary": 3831,
      "multi": 3832,
      "Object": 3833,
      "xml": 3834,
      "heard": 3835,
      "customers": 3836,
      "proto": 3837,
      "abled": 3838,
      "particularly": 3839,
      "Smith": 3840,
      "actual": 3841,
      "Why": 3842,
      "Minister": 3843,
      "treatment": 3844,
      "Army": 3845,
      "rows": 3846,
      "flict": 3847,
      "Donald": 3848,
      "Lic": 3849,
      "Record": 3850,
      "gency": 3851,
      "istan": 3852,
      "serve": 3853,
      "tried": 3854,
      "thread": 3855,
      "Also": 3856,
      "Living": 3857,
      "regul": 3858,
      "System": 3859,
      "gam": 3860,
      "basic": 3861,
      "shown": 3862,
      "Down": 3863,
      "Sur": 3864,
      "legisl": 3865,
      "predict": 3866,
      "trial": 3867,
      "istics": 3868,
      "altern": 3869,
      "Monday": 3870,
      "Please": 3871,
      "critic": 3872,
      "reng": 3873,
      "undred": 3874,
      "sey": 3875,
      "Last": 3876,
      "Wil": 3877,
      "reser": 3878,
      "income": 3879,
      "Leg": 3880,
      "Great": 3881,
      "Ð¸": 3882,
      "blue": 3883,
      "Rad": 3884,
      "increasing": 3885,
      "IO": 3886,
      "Mary": 3887,
      "insur": 3888,
      "ivity": 3889,
      "CA": 3890,
      "remember": 3891,
      "beginning": 3892,
      "completely": 3893,
      "mur": 3894,
      "Music": 3895,
      "secut": 3896,
      "{\"": 3897,
      "credit": 3898,
      "huge": 3899,
      "temper": 3900,
      "challeng": 3901,
      "setting": 3902,
      "Form": 3903,
      "testing": 3904,
      "mitted": 3905,
      "oph": 3906,
      "Iran": 3907,
      "analy": 3908,
      "','": 3909,
      "Bal": 3910,
      "knowledge": 3911,
      "scene": 3912,
      "wind": 3913,
      "username": 3914,
      "imag": 3915,
      "Mich": 3916,
      "ously": 3917,
      "dark": 3918,
      "Roman": 3919,
      "âĢĿ.": 3920,
      "lambda": 3921,
      "Lin": 3922,
      "77": 3923,
      "ube": 3924,
      "igno": 3925,
      "Pan": 3926,
      "Fre": 3927,
      "Tim": 3928,
      "sales": 3929,
      "selected": 3930,
      "happy": 3931,
      "degree": 3932,
      "hands": 3933,
      "bes": 3934,
      "Health": 3935,
      "programs": 3936,
      "thers": 3937,
      "elements": 3938,
      "Los": 3939,
      "owners": 3940,
      "grand": 3941,
      "ti": 3942,
      "bri": 3943,
      "comb": 3944,
      "chief": 3945,
      "determin": 3946,
      "Japanese": 3947,
      "learning": 3948,
      "stories": 3949,
      "construct": 3950,
      "BS": 3951,
      "Sand": 3952,
      "detect": 3953,
      "Western": 3954,
      "Sou": 3955,
      "Bra": 3956,
      "Foreign": 3957,
      "46": 3958,
      "ams": 3959,
      "increased": 3960,
      "citiz": 3961,
      "lie": 3962,
      "Path": 3963,
      "gradu": 3964,
      "costs": 3965,
      "records": 3966,
      "Tod": 3967,
      "Sha": 3968,
      "Soc": 3969,
      "Free": 3970,
      "Club": 3971,
      "Gl": 3972,
      "meaning": 3973,
      "Big": 3974,
      "double": 3975,
      "trust": 3976,
      "Color": 3977,
      "poor": 3978,
      "rail": 3979,
      "bing": 3980,
      "comments": 3981,
      "85": 3982,
      "Bre": 3983,
      "pm": 3984,
      "Date": 3985,
      "prec": 3986,
      "Robert": 3987,
      "growing": 3988,
      "sert": 3989,
      "measure": 3990,
      "Sol": 3991,
      "administration": 3992,
      "associated": 3993,
      "Rob": 3994,
      "majority": 3995,
      "memory": 3996,
      "Bur": 3997,
      "zone": 3998,
      "uid": 3999,
      "forced": 4000,
      "stead": 4001,
      "inated": 4002,
      "anish": 4003,
      "Bank": 4004,
      "Tues": 4005,
      "alone": 4006,
      "African": 4007,
      "category": 4008,
      "apping": 4009,
      "ba": 4010,
      "brain": 4011,
      "route": 4012,
      "Wid": 4013,
      "empty": 4014,
      "Top": 4015,
      "sources": 4016,
      "effects": 4017,
      "Sk": 4018,
      "numer": 4019,
      "contains": 4020,
      "exit": 4021,
      "nodes": 4022,
      "operations": 4023,
      "axis": 4024,
      "apped": 4025,
      "teen": 4026,
      "Institute": 4027,
      "vs": 4028,
      "ula": 4029,
      "traditional": 4030,
      "layer": 4031,
      "methods": 4032,
      "effort": 4033,
      "damage": 4034,
      "symbol": 4035,
      "CL": 4036,
      "boy": 4037,
      "winning": 4038,
      "Satur": 4039,
      "convert": 4040,
      "Any": 4041,
      "adding": 4042,
      "married": 4043,
      "virt": 4044,
      "aste": 4045,
      "goals": 4046,
      "actor": 4047,
      "Road": 4048,
      "choose": 4049,
      "ideas": 4050,
      "transport": 4051,
      "obtain": 4052,
      "liament": 4053,
      "Hall": 4054,
      "~~": 4055,
      "constit": 4056,
      "classes": 4057,
      "radio": 4058,
      "Det": 4059,
      "igence": 4060,
      "burn": 4061,
      "driver": 4062,
      "apt": 4063,
      "pressure": 4064,
      "Ir": 4065,
      "happened": 4066,
      "bridge": 4067,
      "mobile": 4068,
      "agon": 4069,
      "physical": 4070,
      "hear": 4071,
      "ugg": 4072,
      "Tuesday": 4073,
      "PD": 4074,
      "iny": 4075,
      "ored": 4076,
      "commercial": 4077,
      "episode": 4078,
      "economy": 4079,
      "storage": 4080,
      "safety": 4081,
      "kept": 4082,
      "enty": 4083,
      "imal": 4084,
      "stuff": 4085,
      "daughter": 4086,
      "mir": 4087,
      "math": 4088,
      "activities": 4089,
      "grade": 4090,
      "female": 4091,
      "kers": 4092,
      "eline": 4093,
      "Govern": 4094,
      "deaths": 4095,
      "debut": 4096,
      "ec": 4097,
      "Â£": 4098,
      "victim": 4099,
      "imm": 4100,
      "reek": 4101,
      "vention": 4102,
      "dump": 4103,
      "ano": 4104,
      "static": 4105,
      "eth": 4106,
      "Chic": 4107,
      "forts": 4108,
      "*-": 4109,
      "streng": 4110,
      "nature": 4111,
      "machine": 4112,
      "va": 4113,
      "ease": 4114,
      "aling": 4115,
      "claimed": 4116,
      "reme": 4117,
      "uster": 4118,
      "********": 4119,
      "ighest": 4120,
      "(_": 4121,
      "society": 4122,
      "pages": 4123,
      "numpy": 4124,
      "wants": 4125,
      "overall": 4126,
      "border": 4127,
      "solution": 4128,
      "destroy": 4129,
      "rom": 4130,
      "eventually": 4131,
      "TP": 4132,
      "runs": 4133,
      "please": 4134,
      "database": 4135,
      ")))": 4136,
      "reci": 4137,
      "Box": 4138,
      "05": 4139,
      "previously": 4140,
      "Central": 4141,
      "cool": 4142,
      "Point": 4143,
      "sun": 4144,
      "Bus": 4145,
      "Under": 4146,
      "apply": 4147,
      "CC": 4148,
      "encour": 4149,
      "Item": 4150,
      "prefix": 4151,
      "sav": 4152,
      "gi": 4153,
      "listed": 4154,
      "oo": 4155,
      "kids": 4156,
      "stack": 4157,
      "EL": 4158,
      "switch": 4159,
      "Foot": 4160,
      "direction": 4161,
      "fish": 4162,
      "remains": 4163,
      "Africa": 4164,
      "champion": 4165,
      "gives": 4166,
      "300": 4167,
      "Florida": 4168,
      "itude": 4169,
      "Commit": 4170,
      "ini": 4171,
      "advant": 4172,
      "interesting": 4173,
      "uled": 4174,
      "1980": 4175,
      "knew": 4176,
      "asket": 4177,
      "exception": 4178,
      "fear": 4179,
      "IM": 4180,
      "hundred": 4181,
      "02": 4182,
      "Senate": 4183,
      "Saturday": 4184,
      "izations": 4185,
      "wing": 4186,
      "Carol": 4187,
      "easily": 4188,
      "arts": 4189,
      "Thurs": 4190,
      "avoid": 4191,
      "zy": 4192,
      "Main": 4193,
      "Research": 4194,
      "Ze": 4195,
      "Wr": 4196,
      "immediately": 4197,
      "NA": 4198,
      "clud": 4199,
      "burg": 4200,
      "Thomas": 4201,
      "Police": 4202,
      "Line": 4203,
      "blood": 4204,
      "Acade": 4205,
      "Francis": 4206,
      "despite": 4207,
      "highly": 4208,
      "stain": 4209,
      "-*-": 4210,
      "Ter": 4211,
      "43": 4212,
      "ATE": 4213,
      "rol": 4214,
      "serial": 4215,
      "iance": 4216,
      "Company": 4217,
      "distance": 4218,
      "Auto": 4219,
      "AND": 4220,
      "rates": 4221,
      "definit": 4222,
      "Muslim": 4223,
      "appears": 4224,
      "reached": 4225,
      "PA": 4226,
      "branch": 4227,
      "Democratic": 4228,
      "Follow": 4229,
      "studies": 4230,
      "reference": 4231,
      "idx": 4232,
      "individuals": 4233,
      "ental": 4234,
      "Wednes": 4235,
      "aby": 4236,
      "difference": 4237,
      "surface": 4238,
      "highest": 4239,
      "exactly": 4240,
      "creating": 4241,
      "beat": 4242,
      "Mess": 4243,
      "1999": 4244,
      "minor": 4245,
      "suff": 4246,
      "foc": 4247,
      "Ã¶": 4248,
      "edom": 4249,
      "yourself": 4250,
      "conserv": 4251,
      "lat": 4252,
      "eye": 4253,
      "Config": 4254,
      "Project": 4255,
      "beautiful": 4256,
      "messages": 4257,
      "writ": 4258,
      "Chicago": 4259,
      "Hen": 4260,
      "duc": 4261,
      "helped": 4262,
      "battle": 4263,
      "floor": 4264,
      "Thursday": 4265,
      "compl": 4266,
      "CS": 4267,
      "claims": 4268,
      "Like": 4269,
      "ays": 4270,
      "orial": 4271,
      "Because": 4272,
      "bow": 4273,
      "Sil": 4274,
      "girl": 4275,
      "effective": 4276,
      "owned": 4277,
      "iced": 4278,
      "Award": 4279,
      "seg": 4280,
      "park": 4281,
      "cycl": 4282,
      "Wednesday": 4283,
      "ero": 4284,
      "errors": 4285,
      "tribut": 4286,
      "thinking": 4287,
      "189": 4288,
      "seconds": 4289,
      "hur": 4290,
      "ios": 4291,
      "Gen": 4292,
      "68": 4293,
      "src": 4294,
      "Louis": 4295,
      "olic": 4296,
      "2021": 4297,
      "yield": 4298,
      "scen": 4299,
      "Secret": 4300,
      "Inte": 4301,
      "extrem": 4302,
      "ng": 4303,
      "returns": 4304,
      "je": 4305,
      "coin": 4306,
      "bottom": 4307,
      "properties": 4308,
      "rd": 4309,
      "Hum": 4310,
      "NS": 4311,
      "vict": 4312,
      "atively": 4313,
      "ultim": 4314,
      "pa": 4315,
      "Second": 4316,
      "olf": 4317,
      "opening": 4318,
      "looked": 4319,
      "produce": 4320,
      "Grand": 4321,
      "shared": 4322,
      "songs": 4323,
      "Good": 4324,
      "offset": 4325,
      "Soci": 4326,
      "41": 4327,
      "efforts": 4328,
      "ato": 4329,
      "bt": 4330,
      "larger": 4331,
      "climate": 4332,
      "'%": 4333,
      "Oper": 4334,
      "estival": 4335,
      "Care": 4336,
      "Brown": 4337,
      "Tem": 4338,
      "officers": 4339,
      "Virgin": 4340,
      "beyond": 4341,
      "Ano": 4342,
      "Island": 4343,
      "lor": 4344,
      "candidate": 4345,
      "tmp": 4346,
      "architect": 4347,
      "edy": 4348,
      "Team": 4349,
      "digital": 4350,
      "crow": 4351,
      "License": 4352,
      "raised": 4353,
      "ults": 4354,
      "compared": 4355,
      "Order": 4356,
      "respond": 4357,
      "budget": 4358,
      "Ð½": 4359,
      "lose": 4360,
      "essential": 4361,
      "Atl": 4362,
      "Commission": 4363,
      "partner": 4364,
      "phen": 4365,
      "Windows": 4366,
      "THE": 4367,
      "[-": 4368,
      ")),": 4369,
      "PL": 4370,
      "recorded": 4371,
      "devices": 4372,
      "Frank": 4373,
      "Conne": 4374,
      "Cath": 4375,
      "han": 4376,
      "ada": 4377,
      "iled": 4378,
      "officer": 4379,
      "defined": 4380,
      "59": 4381,
      "notes": 4382,
      "ining": 4383,
      "speech": 4384,
      "parameters": 4385,
      "oral": 4386,
      "pression": 4387,
      "icated": 4388,
      "Home": 4389,
      "EX": 4390,
      "weak": 4391,
      "Returns": 4392,
      "78": 4393,
      "foo": 4394,
      "vertis": 4395,
      "ission": 4396,
      "'/": 4397,
      "die": 4398,
      "optim": 4399,
      "adata": 4400,
      "senior": 4401,
      "Women": 4402,
      "asy": 4403,
      "Game": 4404,
      "Lat": 4405,
      "mask": 4406,
      "conference": 4407,
      "Rock": 4408,
      "Peter": 4409,
      "drink": 4410,
      "Mel": 4411,
      "Royal": 4412,
      "]:": 4413,
      "Mass": 4414,
      "patients": 4415,
      "daily": 4416,
      "ValueError": 4417,
      "Another": 4418,
      "competition": 4419,
      "Prov": 4420,
      "appropri": 4421,
      "trig": 4422,
      "immigr": 4423,
      "GB": 4424,
      "SO": 4425,
      "Ira": 4426,
      "Mill": 4427,
      "azine": 4428,
      "ava": 4429,
      "xim": 4430,
      "Once": 4431,
      "traff": 4432,
      "VER": 4433,
      "defense": 4434,
      "religious": 4435,
      "generate": 4436,
      "anta": 4437,
      "Ros": 4438,
      "Cy": 4439,
      "Max": 4440,
      "erc": 4441,
      "Life": 4442,
      "icial": 4443,
      "ÂŃ": 4444,
      "Event": 4445,
      "ustr": 4446,
      "steps": 4447,
      "apart": 4448,
      "headers": 4449,
      "IA": 4450,
      "ifying": 4451,
      "talking": 4452,
      "independent": 4453,
      "nings": 4454,
      "Jose": 4455,
      "\"\\": 4456,
      "reflect": 4457,
      "Committee": 4458,
      "smart": 4459,
      "Richard": 4460,
      "sexual": 4461,
      "fresh": 4462,
      "verbo": 4463,
      "porters": 4464,
      "PR": 4465,
      "Show": 4466,
      "artist": 4467,
      "400": 4468,
      "uple": 4469,
      "Respon": 4470,
      "basis": 4471,
      "ahead": 4472,
      "surround": 4473,
      "inch": 4474,
      "intell": 4475,
      "attach": 4476,
      "appointed": 4477,
      "cum": 4478,
      "finish": 4479,
      "biggest": 4480,
      "amaz": 4481,
      "chem": 4482,
      "mental": 4483,
      "shall": 4484,
      "unched": 4485,
      "riage": 4486,
      "laws": 4487,
      "Head": 4488,
      "greater": 4489,
      "sequence": 4490,
      "cp": 4491,
      "plus": 4492,
      "occup": 4493,
      "stick": 4494,
      "showed": 4495,
      "responsible": 4496,
      "electric": 4497,
      "holds": 4498,
      "sql": 4499,
      "Create": 4500,
      "usion": 4501,
      "acity": 4502,
      "liber": 4503,
      "dial": 4504,
      "mun": 4505,
      "Techn": 4506,
      "danger": 4507,
      "mechan": 4508,
      "1998": 4509,
      "Den": 4510,
      "API": 4511,
      "attacks": 4512,
      "peace": 4513,
      "Inst": 4514,
      "nament": 4515,
      "certainly": 4516,
      "requires": 4517,
      "caused": 4518,
      "mut": 4519,
      "hase": 4520,
      "itation": 4521,
      "critical": 4522,
      "PM": 4523,
      "opin": 4524,
      "ibility": 4525,
      "offered": 4526,
      "TY": 4527,
      "reasons": 4528,
      "Arab": 4529,
      "hus": 4530,
      "catch": 4531,
      "conflict": 4532,
      "pitch": 4533,
      "perhaps": 4534,
      "Games": 4535,
      "Division": 4536,
      "Iraq": 4537,
      "Educ": 4538,
      "Mur": 4539,
      "cities": 4540,
      "ensions": 4541,
      "roid": 4542,
      "Opt": 4543,
      "1970": 4544,
      "confir": 4545,
      "variety": 4546,
      "58": 4547,
      "etch": 4548,
      "nic": 4549,
      "ours": 4550,
      "sis": 4551,
      "Cast": 4552,
      "69": 4553,
      "Di": 4554,
      "stated": 4555,
      "Apple": 4556,
      "zip": 4557,
      "ifier": 4558,
      "gone": 4559,
      "asc": 4560,
      "investigation": 4561,
      "Lev": 4562,
      "agent": 4563,
      "Build": 4564,
      "polic": 4565,
      "Devel": 4566,
      "Earth": 4567,
      ")]": 4568,
      "antic": 4569,
      "accur": 4570,
      "curren": 4571,
      "generally": 4572,
      "sports": 4573,
      "benefits": 4574,
      "Lay": 4575,
      "cf": 4576,
      "noted": 4577,
      "Italian": 4578,
      "tle": 4579,
      "illa": 4580,
      "none": 4581,
      "reduce": 4582,
      "volume": 4583,
      "Ev": 4584,
      "sport": 4585,
      "ride": 4586,
      "Town": 4587,
      "Camp": 4588,
      "Note": 4589,
      "false": 4590,
      "Du": 4591,
      "icode": 4592,
      "escap": 4593,
      "maybe": 4594,
      "Office": 4595,
      "nice": 4596,
      "Fun": 4597,
      "aware": 4598,
      "Bet": 4599,
      "arent": 4600,
      "constant": 4601,
      "skin": 4602,
      "2022": 4603,
      "menu": 4604,
      "Government": 4605,
      "ulated": 4606,
      "powerful": 4607,
      "psych": 4608,
      "Internet": 4609,
      "loop": 4610,
      "sky": 4611,
      "neighbor": 4612,
      "matches": 4613,
      "favorite": 4614,
      "brow": 4615,
      "functions": 4616,
      "picture": 4617,
      "feet": 4618,
      "reality": 4619,
      "hospital": 4620,
      "partners": 4621,
      "airs": 4622,
      "pace": 4623,
      "library": 4624,
      "connected": 4625,
      "amed": 4626,
      "performed": 4627,
      "straight": 4628,
      "ÑĤ": 4629,
      "street": 4630,
      "introduced": 4631,
      "57": 4632,
      "Kar": 4633,
      "violence": 4634,
      "cris": 4635,
      "Gar": 4636,
      "brother": 4637,
      "tail": 4638,
      "obvious": 4639,
      "positions": 4640,
      "fine": 4641,
      "mostly": 4642,
      "upper": 4643,
      "Hy": 4644,
      "TI": 4645,
      "Wall": 4646,
      "Yes": 4647,
      "rial": 4648,
      "resol": 4649,
      "pal": 4650,
      "Index": 4651,
      "04": 4652,
      "inct": 4653,
      "plays": 4654,
      "sea": 4655,
      "founded": 4656,
      "acts": 4657,
      "seed": 4658,
      "=[": 4659,
      "providing": 4660,
      "heavy": 4661,
      "achieve": 4662,
      "ady": 4663,
      "pul": 4664,
      "fat": 4665,
      "micro": 4666,
      "Ry": 4667,
      "SU": 4668,
      "Child": 4669,
      "wealth": 4670,
      "Blue": 4671,
      "fund": 4672,
      "Ko": 4673,
      "Mont": 4674,
      "purpose": 4675,
      "FO": 4676,
      "executive": 4677,
      "cc": 4678,
      "complain": 4679,
      "Foundation": 4680,
      "isation": 4681,
      "broadcast": 4682,
      "Person": 4683,
      "Bas": 4684,
      "challenge": 4685,
      "agree": 4686,
      "img": 4687,
      "agency": 4688,
      "posit": 4689,
      "grant": 4690,
      "myself": 4691,
      "whom": 4692,
      "older": 4693,
      "Inc": 4694,
      "union": 4695,
      "orn": 4696,
      "cry": 4697,
      "agement": 4698,
      "resist": 4699,
      "norm": 4700,
      "BO": 4701,
      "signal": 4702,
      "camera": 4703,
      "poll": 4704,
      "asyn": 4705,
      "abilities": 4706,
      "trip": 4707,
      "Micro": 4708,
      "calcul": 4709,
      "eyes": 4710,
      "Society": 4711,
      "annual": 4712,
      "1996": 4713,
      "documents": 4714,
      "dtype": 4715,
      "guy": 4716,
      "bod": 4717,
      "directed": 4718,
      "Pop": 4719,
      "Jour": 4720,
      "ola": 4721,
      "Uk": 4722,
      "Ã¤": 4723,
      "minute": 4724,
      "employees": 4725,
      "89": 4726,
      "removed": 4727,
      "Pos": 4728,
      "ales": 4729,
      "Glo": 4730,
      "siz": 4731,
      "prices": 4732,
      "DA": 4733,
      "dro": 4734,
      "gate": 4735,
      "insurance": 4736,
      "dog": 4737,
      "1997": 4738,
      "kick": 4739,
      "03": 4740,
      "scr": 4741,
      "mist": 4742,
      "continu": 4743,
      "igan": 4744,
      "login": 4745,
      "propos": 4746,
      "âĢ¢": 4747,
      "agreement": 4748,
      "cars": 4749,
      "kin": 4750,
      "Paris": 4751,
      "convers": 4752,
      "emot": 4753,
      "shire": 4754,
      "phil": 4755,
      "occas": 4756,
      "fourth": 4757,
      "Mexico": 4758,
      "customer": 4759,
      "Each": 4760,
      "ko": 4761,
      "Tour": 4762,
      "department": 4763,
      "Program": 4764,
      "Vict": 4765,
      "leaving": 4766,
      "Spr": 4767,
      "datas": 4768,
      "plt": 4769,
      "creation": 4770,
      "parties": 4771,
      "missions": 4772,
      "KE": 4773,
      "Rem": 4774,
      "Football": 4775,
      "restaur": 4776,
      "ester": 4777,
      "publish": 4778,
      "Middle": 4779,
      "ique": 4780,
      "CR": 4781,
      "Who": 4782,
      "shut": 4783,
      "Command": 4784,
      "atever": 4785,
      "AME": 4786,
      "batch": 4787,
      "Lake": 4788,
      "strategy": 4789,
      "acade": 4790,
      "separate": 4791,
      "tf": 4792,
      "sely": 4793,
      "DS": 4794,
      "murder": 4795,
      "aj": 4796,
      "cells": 4797,
      "ãĤ": 4798,
      "pha": 4799,
      "buildings": 4800,
      "calling": 4801,
      "meant": 4802,
      "Copy": 4803,
      "internal": 4804,
      "rise": 4805,
      "pull": 4806,
      "Dou": 4807,
      "vehicle": 4808,
      "toward": 4809,
      "ils": 4810,
      "skills": 4811,
      "km": 4812,
      "NE": 4813,
      "hero": 4814,
      "phy": 4815,
      "useful": 4816,
      "Ire": 4817,
      "Elect": 4818,
      "Series": 4819,
      "depth": 4820,
      "heat": 4821,
      "Node": 4822,
      "fi": 4823,
      "Start": 4824,
      "yes": 4825,
      "fant": 4826,
      "Social": 4827,
      "execute": 4828,
      "Jes": 4829,
      "rare": 4830,
      "verbose": 4831,
      "08": 4832,
      "rev": 4833,
      "Both": 4834,
      "throw": 4835,
      "Charles": 4836,
      "\"%": 4837,
      "bag": 4838,
      "becoming": 4839,
      "atures": 4840,
      "Jim": 4841,
      "gender": 4842,
      "arguments": 4843,
      "san": 4844,
      "profit": 4845,
      "tend": 4846,
      "generation": 4847,
      "USA": 4848,
      "ads": 4849,
      "Hu": 4850,
      "Today": 4851,
      "slight": 4852,
      "posted": 4853,
      "truth": 4854,
      "txt": 4855,
      "initi": 4856,
      "Jud": 4857,
      "brief": 4858,
      "trail": 4859,
      "mbly": 4860,
      "faces": 4861,
      "Championship": 4862,
      "spend": 4863,
      "Its": 4864,
      "yer": 4865,
      "Admin": 4866,
      "wit": 4867,
      "Ur": 4868,
      "guest": 4869,
      "entity": 4870,
      "CP": 4871,
      "jump": 4872,
      "advis": 4873,
      "56": 4874,
      "ãĥ": 4875,
      "requests": 4876,
      "matrix": 4877,
      "Develop": 4878,
      "labels": 4879,
      "selection": 4880,
      "?âĢĿ": 4881,
      "iring": 4882,
      "husband": 4883,
      "sembly": 4884,
      "ita": 4885,
      "pow": 4886,
      "font": 4887,
      "interested": 4888,
      "thousands": 4889,
      "Only": 4890,
      "assum": 4891,
      "subscri": 4892,
      "cards": 4893,
      "sid": 4894,
      "ensus": 4895,
      "artists": 4896,
      "equipment": 4897,
      "supply": 4898,
      "recommend": 4899,
      "launched": 4900,
      "iar": 4901,
      "52": 4902,
      "glass": 4903,
      "Their": 4904,
      "river": 4905,
      "Ann": 4906,
      "couldn": 4907,
      "fif": 4908,
      "experiment": 4909,
      "famous": 4910,
      "farm": 4911,
      "communities": 4912,
      "\"))": 4913,
      "Param": 4914,
      "factor": 4915,
      "lets": 4916,
      "Rail": 4917,
      "updated": 4918,
      "elling": 4919,
      "td": 4920,
      "square": 4921,
      "dream": 4922,
      "Force": 4923,
      "bles": 4924,
      "Power": 4925,
      "Science": 4926,
      "tab": 4927,
      "TS": 4928,
      "division": 4929,
      "tags": 4930,
      "51": 4931,
      "pic": 4932,
      "Request": 4933,
      "Liber": 4934,
      "Board": 4935,
      "continues": 4936,
      "Spanish": 4937,
      "Georg": 4938,
      "1995": 4939,
      "iling": 4940,
      "apter": 4941,
      "ii": 4942,
      "enses": 4943,
      "anda": 4944,
      "aspect": 4945,
      "Sign": 4946,
      "aker": 4947,
      "Hon": 4948,
      "protest": 4949,
      "idden": 4950,
      "ÑĢ": 4951,
      "OK": 4952,
      "aly": 4953,
      "assess": 4954,
      "Squ": 4955,
      "factory": 4956,
      "86": 4957,
      "Angeles": 4958,
      "Fort": 4959,
      "rum": 4960,
      "tur": 4961,
      "afford": 4962,
      "iger": 4963,
      "EU": 4964,
      "asketball": 4965,
      "residents": 4966,
      "Fam": 4967,
      "Pak": 4968,
      "originally": 4969,
      "Vis": 4970,
      "atom": 4971,
      "zen": 4972,
      "demonstr": 4973,
      "instr": 4974,
      "crime": 4975,
      "diction": 4976,
      "understanding": 4977,
      "lived": 4978,
      "lots": 4979,
      "Pac": 4980,
      "Hot": 4981,
      "sale": 4982,
      "commission": 4983,
      "Profess": 4984,
      "cycle": 4985,
      "Dec": 4986,
      "mentioned": 4987,
      "Museum": 4988,
      "rooms": 4989,
      "negative": 4990,
      "miles": 4991,
      "stress": 4992,
      "ros": 4993,
      "investment": 4994,
      "wild": 4995,
      "Virginia": 4996,
      "fortun": 4997,
      "arms": 4998,
      "decor": 4999,
      "Av": 5000,
      "async": 5001,
      "Fire": 5002,
      "theme": 5003,
      "planning": 5004,
      "Penn": 5005,
      "Gal": 5006,
      "Ireland": 5007,
      "spread": 5008,
      "nine": 5009,
      "seeing": 5010,
      "Philip": 5011,
      "Ukrain": 5012,
      "Martin": 5013,
      "54": 5014,
      "TER": 5015,
      "79": 5016,
      "prefer": 5017,
      "funding": 5018,
      "compar": 5019,
      "deli": 5020,
      "metadata": 5021,
      "\\\\": 5022,
      "infr": 5023,
      "Johnson": 5024,
      "mary": 5025,
      "discuss": 5026,
      "enem": 5027,
      "solid": 5028,
      "nut": 5029,
      "wouldn": 5030,
      "BI": 5031,
      "adjust": 5032,
      "09": 5033,
      "revol": 5034,
      "remote": 5035,
      "notice": 5036,
      "zil": 5037,
      "aland": 5038,
      "1994": 5039,
      "Long": 5040,
      "influence": 5041,
      "Security": 5042,
      "zero": 5043,
      "gather": 5044,
      "automat": 5045,
      "seat": 5046,
      "TestCase": 5047,
      "purchase": 5048,
      "FOR": 5049,
      "Dict": 5050,
      "06": 5051,
      "handler": 5052,
      "span": 5053,
      "Old": 5054,
      "graphic": 5055,
      "Land": 5056,
      "strugg": 5057,
      "Gre": 5058,
      "Jewish": 5059,
      "Swed": 5060,
      "lan": 5061,
      "materials": 5062,
      "Histor": 5063,
      "aa": 5064,
      "cture": 5065,
      "benefit": 5066,
      "outs": 5067,
      "agreed": 5068,
      "fle": 5069,
      "quant": 5070,
      "incident": 5071,
      "marks": 5072,
      "plies": 5073,
      "Mike": 5074,
      "pin": 5075,
      "Int": 5076,
      ".'": 5077,
      "Page": 5078,
      "politics": 5079,
      "ctors": 5080,
      "restrict": 5081,
      "ki": 5082,
      "theory": 5083,
      "advantage": 5084,
      "disease": 5085,
      "ulate": 5086,
      "Ill": 5087,
      "cription": 5088,
      "spending": 5089,
      "arden": 5090,
      "sole": 5091,
      "gor": 5092,
      "strateg": 5093,
      "becomes": 5094,
      "RA": 5095,
      "Ñģ": 5096,
      "bell": 5097,
      "1000": 5098,
      "ounds": 5099,
      "managed": 5100,
      "Emp": 5101,
      "uries": 5102,
      "Make": 5103,
      "otherwise": 5104,
      "NC": 5105,
      "organizations": 5106,
      "53": 5107,
      "Love": 5108,
      "coverage": 5109,
      "?\"": 5110,
      "cash": 5111,
      "Media": 5112,
      "configuration": 5113,
      "coordin": 5114,
      "issued": 5115,
      "bomb": 5116,
      "OF": 5117,
      "failure": 5118,
      "queue": 5119,
      "iqu": 5120,
      "suspect": 5121,
      "reverse": 5122,
      "western": 5123,
      "writers": 5124,
      "smaller": 5125,
      "Pass": 5126,
      "Kingdom": 5127,
      "exerc": 5128,
      "angle": 5129,
      "\">": 5130,
      "orders": 5131,
      "traffic": 5132,
      "Jones": 5133,
      "highlight": 5134,
      "proposed": 5135,
      "1992": 5136,
      "ski": 5137,
      "tuple": 5138,
      "Common": 5139,
      "goti": 5140,
      "stood": 5141,
      "folder": 5142,
      "72": 5143,
      "spokes": 5144,
      "variable": 5145,
      "Python": 5146,
      "trou": 5147,
      "rics": 5148,
      "collabor": 5149,
      "upload": 5150,
      "1960": 5151,
      "desc": 5152,
      "nuclear": 5153,
      "guard": 5154,
      "fighting": 5155,
      "diag": 5156,
      "Ken": 5157,
      "'].": 5158,
      "Bob": 5159,
      "balance": 5160,
      "thentic": 5161,
      "ronic": 5162,
      "exhib": 5163,
      "Chris": 5164,
      "meta": 5165,
      "component": 5166,
      "uri": 5167,
      "willing": 5168,
      "editor": 5169,
      "confirmed": 5170,
      "coding": 5171,
      "Sof": 5172,
      "internet": 5173,
      "skip": 5174,
      "Use": 5175,
      "Table": 5176,
      "guys": 5177,
      "76": 5178,
      "interface": 5179,
      "capacity": 5180,
      "nav": 5181,
      "appearance": 5182,
      "stats": 5183,
      "eff": 5184,
      "Win": 5185,
      "Scot": 5186,
      "Catholic": 5187,
      "timeout": 5188,
      "Academy": 5189,
      "Hor": 5190,
      "Response": 5191,
      "Enter": 5192,
      "utch": 5193,
      "iders": 5194,
      "Commun": 5195,
      "Ok": 5196,
      "aircraft": 5197,
      "believed": 5198,
      "Look": 5199,
      "pil": 5200,
      "itz": 5201,
      "Dom": 5202,
      "Dep": 5203,
      "presents": 5204,
      "erve": 5205,
      "alleged": 5206,
      "clients": 5207,
      "Ve": 5208,
      "Victor": 5209,
      "ye": 5210,
      "apers": 5211,
      "spirit": 5212,
      "Code": 5213,
      "wear": 5214,
      "reject": 5215,
      "Despite": 5216,
      "cks": 5217,
      "ura": 5218,
      "ador": 5219,
      "Carolina": 5220,
      "warning": 5221,
      "policies": 5222,
      "edition": 5223,
      "PRO": 5224,
      "bytes": 5225,
      "identity": 5226,
      "portion": 5227,
      "newsp": 5228,
      "enum": 5229,
      "medic": 5230,
      "Education": 5231,
      "strain": 5232,
      "Tal": 5233,
      "businesses": 5234,
      "decades": 5235,
      "weekend": 5236,
      "ertain": 5237,
      "Bud": 5238,
      "apparent": 5239,
      "criminal": 5240,
      "featured": 5241,
      "victory": 5242,
      "Journal": 5243,
      "Brazil": 5244,
      "monitor": 5245,
      "relative": 5246,
      "Chief": 5247,
      "revealed": 5248,
      "ni": 5249,
      "plugin": 5250,
      "appropriate": 5251,
      "princ": 5252,
      ",'": 5253,
      "feeling": 5254,
      "attribute": 5255,
      "remained": 5256,
      "presented": 5257,
      "exclus": 5258,
      "bled": 5259,
      "applications": 5260,
      "serving": 5261,
      "extract": 5262,
      "inary": 5263,
      "yle": 5264,
      "ette": 5265,
      "Britain": 5266,
      "amazing": 5267,
      "---": 5268,
      "earth": 5269,
      "ying": 5270,
      "excell": 5271,
      "Engine": 5272,
      "scope": 5273,
      "Pet": 5274,
      "discovered": 5275,
      "uty": 5276,
      "Wood": 5277,
      "fare": 5278,
      "definitely": 5279,
      "insp": 5280,
      "strength": 5281,
      "acting": 5282,
      "Ð¾Ð": 5283,
      "marriage": 5284,
      "callback": 5285,
      "approxim": 5286,
      "Bit": 5287,
      "07": 5288,
      "Ha": 5289,
      "tk": 5290,
      "operating": 5291,
      "bind": 5292,
      "exchange": 5293,
      "components": 5294,
      "Zealand": 5295,
      "stations": 5296,
      "remaining": 5297,
      "amb": 5298,
      "ounder": 5299,
      "Tok": 5300,
      "Ms": 5301,
      "replaced": 5302,
      "distribution": 5303,
      "adium": 5304,
      "debate": 5305,
      "cancer": 5306,
      "driving": 5307,
      "identified": 5308,
      "Director": 5309,
      "pip": 5310,
      "1993": 5311,
      "charges": 5312,
      "Korea": 5313,
      "Lee": 5314,
      "Card": 5315,
      "DB": 5316,
      "Action": 5317,
      "ena": 5318,
      "tren": 5319,
      "hang": 5320,
      "pieces": 5321,
      "delay": 5322,
      "Author": 5323,
      "']['": 5324,
      "bool": 5325,
      "responsib": 5326,
      "replac": 5327,
      "protection": 5328,
      "learned": 5329,
      "negoti": 5330,
      "Republicans": 5331,
      "fold": 5332,
      "theast": 5333,
      "').": 5334,
      "Size": 5335,
      "weather": 5336,
      "extremely": 5337,
      "pun": 5338,
      "presence": 5339,
      "xx": 5340,
      "unknown": 5341,
      "subsequ": 5342,
      "vals": 5343,
      "scored": 5344,
      "expert": 5345,
      "quot": 5346,
      "consult": 5347,
      "umni": 5348,
      "\"],": 5349,
      "voters": 5350,
      "poly": 5351,
      "topic": 5352,
      "mine": 5353,
      "Kr": 5354,
      "ala": 5355,
      "batter": 5356,
      "coast": 5357,
      "Mu": 5358,
      "fn": 5359,
      "ancing": 5360,
      "audience": 5361,
      "bb": 5362,
      "Boston": 5363,
      "heav": 5364,
      "Justice": 5365,
      "zo": 5366,
      "leadership": 5367,
      "apps": 5368,
      "63": 5369,
      "showing": 5370,
      "minister": 5371,
      "(-": 5372,
      "ancy": 5373,
      "license": 5374,
      "eat": 5375,
      "committee": 5376,
      "pytest": 5377,
      "End": 5378,
      "choices": 5379,
      "DC": 5380,
      "rig": 5381,
      "seasons": 5382,
      "homes": 5383,
      "flight": 5384,
      "mand": 5385,
      "clearly": 5386,
      "usual": 5387,
      "const": 5388,
      "Tit": 5389,
      "coal": 5390,
      "extension": 5391,
      "innov": 5392,
      "lon": 5393,
      "Sovi": 5394,
      "Integer": 5395,
      "assertTrue": 5396,
      "focused": 5397,
      "Thanks": 5398,
      "satis": 5399,
      "helps": 5400,
      "easier": 5401,
      "intelligence": 5402,
      "hun": 5403,
      "Before": 5404,
      "defin": 5405,
      "presidential": 5406,
      "Haw": 5407,
      "spring": 5408,
      "uan": 5409,
      "bling": 5410,
      "columns": 5411,
      "Ama": 5412,
      "therefore": 5413,
      "sym": 5414,
      "holding": 5415,
      "guitar": 5416,
      "Far": 5417,
      "Bow": 5418,
      "Further": 5419,
      "âĢĿ,": 5420,
      "sustain": 5421,
      "Early": 5422,
      "behavior": 5423,
      "('/": 5424,
      "thr": 5425,
      "Map": 5426,
      "concerns": 5427,
      "Message": 5428,
      "pp": 5429,
      "secure": 5430,
      "joint": 5431,
      "weapons": 5432,
      "Design": 5433,
      "fell": 5434,
      ">=": 5435,
      "Bi": 5436,
      "diff": 5437,
      "faith": 5438,
      "panel": 5439,
      "Doc": 5440,
      "mac": 5441,
      "deploy": 5442,
      "shell": 5443,
      "tack": 5444,
      "crisis": 5445,
      "1991": 5446,
      "Info": 5447,
      "socket": 5448,
      "allowing": 5449,
      "insert": 5450,
      "arant": 5451,
      "gers": 5452,
      "keeping": 5453,
      "selling": 5454,
      "vant": 5455,
      "flat": 5456,
      "specified": 5457,
      "inger": 5458,
      "ordered": 5459,
      "NAME": 5460,
      "haven": 5461,
      "crash": 5462,
      "samples": 5463,
      "authorities": 5464,
      "plants": 5465,
      "255": 5466,
      "dry": 5467,
      "requirements": 5468,
      "ture": 5469,
      "Summer": 5470,
      "ensity": 5471,
      "74": 5472,
      "corner": 5473,
      "fly": 5474,
      "Stand": 5475,
      "peak": 5476,
      "ui": 5477,
      "Polit": 5478,
      "fuel": 5479,
      "Water": 5480,
      "centre": 5481,
      "survey": 5482,
      "tournament": 5483,
      "nar": 5484,
      "freedom": 5485,
      "Democrats": 5486,
      "acted": 5487,
      "ucky": 5488,
      "photos": 5489,
      "poses": 5490,
      "ox": 5491,
      "impress": 5492,
      "instruct": 5493,
      "finding": 5494,
      "Equ": 5495,
      "expression": 5496,
      "NU": 5497,
      "happens": 5498,
      "visual": 5499,
      "Mot": 5500,
      "Space": 5501,
      "Nat": 5502,
      "stre": 5503,
      "Work": 5504,
      "changing": 5505,
      "IB": 5506,
      "porter": 5507,
      "contest": 5508,
      "mountain": 5509,
      "Cho": 5510,
      "attributes": 5511,
      "Italy": 5512,
      "filled": 5513,
      "Jon": 5514,
      "knows": 5515,
      "Business": 5516,
      "Meta": 5517,
      "olean": 5518,
      "Bern": 5519,
      "Whe": 5520,
      "maximum": 5521,
      "fellow": 5522,
      "Manager": 5523,
      "conn": 5524,
      "Organ": 5525,
      "Link": 5526,
      "Vide": 5527,
      "Us": 5528,
      "democr": 5529,
      "ockey": 5530,
      "candidates": 5531,
      "Lim": 5532,
      "enh": 5533,
      "unicode": 5534,
      "61": 5535,
      "aters": 5536,
      "Christmas": 5537,
      "vertisement": 5538,
      "abin": 5539,
      "yard": 5540,
      "Four": 5541,
      "university": 5542,
      "Source": 5543,
      "rang": 5544,
      "Mult": 5545,
      "temperature": 5546,
      "mad": 5547,
      "tun": 5548,
      "Week": 5549,
      "versions": 5550,
      "elim": 5551,
      "resp": 5552,
      "charged": 5553,
      "termine": 5554,
      "kid": 5555,
      "patient": 5556,
      "generated": 5557,
      "Number": 5558,
      "defend": 5559,
      "cultural": 5560,
      "Ari": 5561,
      "estamp": 5562,
      "CN": 5563,
      "ashion": 5564,
      "guess": 5565,
      "determine": 5566,
      "Henry": 5567,
      "numerous": 5568,
      "belong": 5569,
      "paths": 5570,
      "Pack": 5571,
      "ella": 5572,
      "Ram": 5573,
      "citizens": 5574,
      "transform": 5575,
      "draft": 5576,
      "island": 5577,
      "regarding": 5578,
      "shooting": 5579,
      "]]": 5580,
      "Sar": 5581,
      "whatever": 5582,
      "Jul": 5583,
      "62": 5584,
      "studio": 5585,
      "csv": 5586,
      "scan": 5587,
      "olar": 5588,
      "funds": 5589,
      "Awards": 5590,
      "estic": 5591,
      "Special": 5592,
      "Flo": 5593,
      "healthy": 5594,
      "advoc": 5595,
      "Sports": 5596,
      "Instead": 5597,
      "ji": 5598,
      "intended": 5599,
      "III": 5600,
      "marketing": 5601,
      "housing": 5602,
      "native": 5603,
      "Tre": 5604,
      "carried": 5605,
      "minimum": 5606,
      "animals": 5607,
      "Fox": 5608,
      "nest": 5609,
      "cursor": 5610,
      "Element": 5611,
      "Frame": 5612,
      "corporate": 5613,
      "dress": 5614,
      "processing": 5615,
      ".\")": 5616,
      "shift": 5617,
      "izes": 5618,
      "Those": 5619,
      "\"/": 5620,
      "comfor": 5621,
      "Lord": 5622,
      "habit": 5623,
      "Core": 5624,
      "clin": 5625,
      "Records": 5626,
      "Init": 5627,
      "87": 5628,
      "colors": 5629,
      "cean": 5630,
      "elections": 5631,
      "planned": 5632,
      "arrived": 5633,
      "iation": 5634,
      "army": 5635,
      "ader": 5636,
      "shap": 5637,
      "Gall": 5638,
      "seemed": 5639,
      "Film": 5640,
      "waiting": 5641,
      "accounts": 5642,
      "widget": 5643,
      "injury": 5644,
      "Soviet": 5645,
      "doll": 5646,
      "arrang": 5647,
      "attend": 5648,
      "dt": 5649,
      "Gi": 5650,
      "motor": 5651,
      "proced": 5652,
      "ders": 5653,
      "containing": 5654,
      "mel": 5655,
      "Ty": 5656,
      "supposed": 5657,
      "________": 5658,
      "%(": 5659,
      "wed": 5660,
      "atre": 5661,
      "Joe": 5662,
      "isters": 5663,
      "ALL": 5664,
      ":`": 5665,
      "ForeignKey": 5666,
      "stars": 5667,
      "SH": 5668,
      "missed": 5669,
      "Light": 5670,
      "Syria": 5671,
      "locations": 5672,
      "enable": 5673,
      "Cli": 5674,
      "unittest": 5675,
      "(*": 5676,
      "GO": 5677,
      "albums": 5678,
      "Vers": 5679,
      "Network": 5680,
      "SP": 5681,
      "oppon": 5682,
      "sides": 5683,
      "payment": 5684,
      "sts": 5685,
      "eg": 5686,
      "approximately": 5687,
      "ignore": 5688,
      "Dani": 5689,
      "ighter": 5690,
      "tt": 5691,
      "usage": 5692,
      "wrap": 5693,
      "150": 5694,
      "sector": 5695,
      "Irish": 5696,
      "combined": 5697,
      "ua": 5698,
      "parameter": 5699,
      "atest": 5700,
      "friendly": 5701,
      "installed": 5702,
      "Ohio": 5703,
      "dot": 5704,
      "Vi": 5705,
      "administr": 5706,
      "enforce": 5707,
      "1989": 5708,
      "asking": 5709,
      "visible": 5710,
      "Valley": 5711,
      "ulture": 5712,
      "Dist": 5713,
      "swe": 5714,
      "Real": 5715,
      "marg": 5716,
      "urban": 5717,
      "Eli": 5718,
      "Prem": 5719,
      "articles": 5720,
      "Asia": 5721,
      "professor": 5722,
      "??": 5723,
      "mt": 5724,
      "youth": 5725,
      "wis": 5726,
      "Williams": 5727,
      "\",\"": 5728,
      "Copyright": 5729,
      "trace": 5730,
      "App": 5731,
      "extend": 5732,
      "agg": 5733,
      "unte": 5734,
      "metal": 5735,
      "uit": 5736,
      "Station": 5737,
      "audio": 5738,
      "Egy": 5739,
      "controvers": 5740,
      "alternative": 5741,
      "opportun": 5742,
      "warm": 5743,
      "Fact": 5744,
      "schedule": 5745,
      "researchers": 5746,
      "arrested": 5747,
      "andon": 5748,
      "provider": 5749,
      "stdout": 5750,
      "LA": 5751,
      "Mun": 5752,
      "alog": 5753,
      "witness": 5754,
      "UE": 5755,
      "dish": 5756,
      "experienced": 5757,
      "represented": 5758,
      "opinion": 5759,
      "mouth": 5760,
      "ansas": 5761,
      "Sea": 5762,
      "currency": 5763,
      "Francisco": 5764,
      "ergy": 5765,
      "vac": 5766,
      "announce": 5767,
      "Microsoft": 5768,
      "girls": 5769,
      "gins": 5770,
      "suggested": 5771,
      "batt": 5772,
      "judge": 5773,
      "tot": 5774,
      "etic": 5775,
      "rul": 5776,
      "cloud": 5777,
      "entered": 5778,
      "NFL": 5779,
      "Palest": 5780,
      "Cross": 5781,
      "offering": 5782,
      "84": 5783,
      "SA": 5784,
      "Column": 5785,
      "ially": 5786,
      "73": 5787,
      "(@": 5788,
      "debt": 5789,
      "Prime": 5790,
      "Hal": 5791,
      "req": 5792,
      "Development": 5793,
      "houses": 5794,
      "emon": 5795,
      "philos": 5796,
      "Proper": 5797,
      "Federal": 5798,
      "Ul": 5799,
      "dynam": 5800,
      "MM": 5801,
      "truly": 5802,
      ")):": 5803,
      "tank": 5804,
      "ja": 5805,
      "Michigan": 5806,
      "rical": 5807,
      "]))": 5808,
      "invent": 5809,
      "magazine": 5810,
      "thanks": 5811,
      "massive": 5812,
      "phase": 5813,
      "Human": 5814,
      "hall": 5815,
      "depart": 5816,
      "onom": 5817,
      "container": 5818,
      "bath": 5819,
      "Radio": 5820,
      "Secretary": 5821,
      "elled": 5822,
      "Egypt": 5823,
      "ologies": 5824,
      "justice": 5825,
      "tasks": 5826,
      "opposition": 5827,
      "makers": 5828,
      "standards": 5829,
      "hook": 5830,
      "municip": 5831,
      "buffer": 5832,
      "univers": 5833,
      "attor": 5834,
      "prote": 5835,
      "à¤": 5836,
      "IF": 5837,
      "clim": 5838,
      "applied": 5839,
      "ography": 5840,
      "iki": 5841,
      "cher": 5842,
      "incred": 5843,
      "prompt": 5844,
      "helping": 5845,
      "council": 5846,
      "Andrew": 5847,
      "skill": 5848,
      "TA": 5849,
      "blocks": 5850,
      "Dar": 5851,
      "chart": 5852,
      "situ": 5853,
      "wan": 5854,
      "usr": 5855,
      "estimated": 5856,
      "1988": 5857,
      "Sir": 5858,
      "losing": 5859,
      "advanced": 5860,
      "plates": 5861,
      "efficient": 5862,
      "bio": 5863,
      "factors": 5864,
      "guarant": 5865,
      "developing": 5866,
      "rt": 5867,
      "scientific": 5868,
      "Northern": 5869,
      "Young": 5870,
      "Services": 5871,
      "slightly": 5872,
      "fixed": 5873,
      "Current": 5874,
      "sand": 5875,
      "Cat": 5876,
      "mond": 5877,
      "encoding": 5878,
      "ju": 5879,
      "prepared": 5880,
      "tracks": 5881,
      "asp": 5882,
      "leaves": 5883,
      "measures": 5884,
      "Spec": 5885,
      "trigger": 5886,
      "invalid": 5887,
      "flags": 5888,
      "attended": 5889,
      "igation": 5890,
      "Where": 5891,
      "yards": 5892,
      "approved": 5893,
      "Bul": 5894,
      "Joseph": 5895,
      "employment": 5896,
      "twice": 5897,
      "explained": 5898,
      "association": 5899,
      "lists": 5900,
      "possibly": 5901,
      "talent": 5902,
      "mi": 5903,
      "Conserv": 5904,
      "Orig": 5905,
      "basketball": 5906,
      "Song": 5907,
      "typically": 5908,
      "Ca": 5909,
      "telling": 5910,
      "examples": 5911,
      "Bir": 5912,
      "broken": 5913,
      "Islamic": 5914,
      "votes": 5915,
      "Econom": 5916,
      "expensive": 5917,
      "historical": 5918,
      "Toronto": 5919,
      "Blo": 5920,
      "Sl": 5921,
      "bid": 5922,
      "uct": 5923,
      "concent": 5924,
      "optional": 5925,
      "Dan": 5926,
      "rick": 5927,
      "bac": 5928,
      "Three": 5929,
      "Content": 5930,
      "Van": 5931,
      "Pacific": 5932,
      "Tar": 5933,
      "ilder": 5934,
      "EC": 5935,
      "advance": 5936,
      "reduced": 5937,
      "committed": 5938,
      "Gir": 5939,
      "til": 5940,
      "NY": 5941,
      "Supreme": 5942,
      "accepted": 5943,
      "Jackson": 5944,
      "Bush": 5945,
      "EM": 5946,
      "seq": 5947,
      "comfortable": 5948,
      "astru": 5949,
      "Widget": 5950,
      "relevant": 5951,
      "videos": 5952,
      "opportunities": 5953,
      "alpha": 5954,
      "Op": 5955,
      "izon": 5956,
      "sters": 5957,
      "interpret": 5958,
      "dataset": 5959,
      "environmental": 5960,
      "largely": 5961,
      "Tag": 5962,
      "plication": 5963,
      "lers": 5964,
      "protocol": 5965,
      "technical": 5966,
      "hundreds": 5967,
      "argv": 5968,
      "tells": 5969,
      "chos": 5970,
      "Gra": 5971,
      "assistant": 5972,
      "utely": 5973,
      "venture": 5974,
      "sig": 5975,
      "awarded": 5976,
      "Olympics": 5977,
      "82": 5978,
      "pix": 5979,
      "markets": 5980,
      "About": 5981,
      "alty": 5982,
      "LL": 5983,
      "figures": 5984,
      "HTTP": 5985,
      "extended": 5986,
      "icient": 5987,
      "determined": 5988,
      "hotel": 5989,
      "Israeli": 5990,
      "manage": 5991,
      "offee": 5992,
      "mort": 5993,
      "guide": 5994,
      "hearing": 5995,
      "plane": 5996,
      "GET": 5997,
      "Find": 5998,
      "vehicles": 5999,
      "Stan": 6000,
      "syl": 6001,
      "doctor": 6002,
      "emporary": 6003,
      "earned": 6004,
      "1950": 6005,
      "producer": 6006,
      "cluster": 6007,
      "discussion": 6008,
      "Spain": 6009,
      "wx": 6010,
      "'-": 6011,
      "stopped": 6012,
      "Steve": 6013,
      "guid": 6014,
      "county": 6015,
      "inate": 6016,
      "Guard": 6017,
      "itchen": 6018,
      "export": 6019,
      "excellent": 6020,
      "external": 6021,
      "ums": 6022,
      "dependent": 6023,
      "Next": 6024,
      "Parliament": 6025,
      "permission": 6026,
      "cold": 6027,
      "Arts": 6028,
      "Right": 6029,
      "ups": 6030,
      "putting": 6031,
      "baby": 6032,
      "Southern": 6033,
      "paint": 6034,
      "dedicated": 6035,
      "71": 6036,
      "Asian": 6037,
      "ctic": 6038,
      "resolution": 6039,
      "83": 6040,
      "BU": 6041,
      "repeated": 6042,
      "los": 6043,
      "entirely": 6044,
      "adopt": 6045,
      "utional": 6046,
      "Dat": 6047,
      "variables": 6048,
      "eds": 6049,
      "vit": 6050,
      "territ": 6051,
      "Bad": 6052,
      "dollars": 6053,
      "Ron": 6054,
      "decisions": 6055,
      "watching": 6056,
      "Die": 6057,
      "Way": 6058,
      "WS": 6059,
      "compat": 6060,
      "speaking": 6061,
      "boys": 6062,
      "Fig": 6063,
      "chemical": 6064,
      "infect": 6065,
      "registered": 6066,
      "relations": 6067,
      "<=": 6068,
      "oppos": 6069,
      "tribute": 6070,
      "absolute": 6071,
      "acing": 6072,
      "winter": 6073,
      "hat": 6074,
      "relatively": 6075,
      "caught": 6076,
      "Kel": 6077,
      "letters": 6078,
      "Jesus": 6079,
      "politicians": 6080,
      "marked": 6081,
      "81": 6082,
      "entertain": 6083,
      "hack": 6084,
      "WA": 6085,
      "succeed": 6086,
      "assault": 6087,
      "sorted": 6088,
      "ares": 6089,
      "bought": 6090,
      "Notes": 6091,
      "=(": 6092,
      "unless": 6093,
      "prosecut": 6094,
      "Following": 6095,
      "resident": 6096,
      "estate": 6097,
      "nick": 6098,
      "evalu": 6099,
      "HD": 6100,
      "kins": 6101,
      "Mix": 6102,
      "erate": 6103,
      "retail": 6104,
      "boot": 6105,
      "sphere": 6106,
      "conducted": 6107,
      "circum": 6108,
      "listen": 6109,
      "loan": 6110,
      "Greek": 6111,
      "interests": 6112,
      "yo": 6113,
      "alumni": 6114,
      "Dun": 6115,
      "Review": 6116,
      "prepar": 6117,
      "inf": 6118,
      "SC": 6119,
      "md": 6120,
      "passing": 6121,
      "neighborhood": 6122,
      "tradition": 6123,
      "solutions": 6124,
      "CEO": 6125,
      "perman": 6126,
      "Vo": 6127,
      "cluded": 6128,
      "shel": 6129,
      "gorith": 6130,
      "1987": 6131,
      "Ash": 6132,
      "Rod": 6133,
      "pra": 6134,
      "definition": 6135,
      "trav": 6136,
      "Button": 6137,
      "Watch": 6138,
      "eper": 6139,
      "affected": 6140,
      "Put": 6141,
      "pictures": 6142,
      "fashion": 6143,
      "initially": 6144,
      "Mean": 6145,
      "Block": 6146,
      "cos": 6147,
      "colon": 6148,
      "]['": 6149,
      "1986": 6150,
      "familiar": 6151,
      "cha": 6152,
      "BBC": 6153,
      "1984": 6154,
      "illegal": 6155,
      "tough": 6156,
      "observ": 6157,
      "scientists": 6158,
      "rob": 6159,
      "Ru": 6160,
      "Video": 6161,
      "authentic": 6162,
      "BE": 6163,
      "Major": 6164,
      "occurred": 6165,
      "Mountain": 6166,
      "orient": 6167,
      "crew": 6168,
      "WH": 6169,
      "Wel": 6170,
      "northern": 6171,
      "authority": 6172,
      "Dig": 6173,
      "ATION": 6174,
      "Policy": 6175,
      "robot": 6176,
      "Click": 6177,
      "decade": 6178,
      "UP": 6179,
      "Library": 6180,
      "\"'": 6181,
      "tu": 6182,
      "animal": 6183,
      "tele": 6184,
      "\"):": 6185,
      "gal": 6186,
      "iana": 6187,
      "advert": 6188,
      "Navy": 6189,
      "astructure": 6190,
      "emb": 6191,
      "Festival": 6192,
      "DI": 6193,
      "escape": 6194,
      "banks": 6195,
      "ghan": 6196,
      "++": 6197,
      "aked": 6198,
      "tech": 6199,
      "pursu": 6200,
      "ora": 6201,
      "ingly": 6202,
      "appreci": 6203,
      "sister": 6204,
      "eless": 6205,
      "strike": 6206,
      "repair": 6207,
      "oul": 6208,
      "Olympic": 6209,
      "sequences": 6210,
      "onym": 6211,
      "SI": 6212,
      "teacher": 6213,
      "legislation": 6214,
      "Track": 6215,
      "profession": 6216,
      "iques": 6217,
      "bright": 6218,
      "Ã¨": 6219,
      "plicit": 6220,
      "enabled": 6221,
      "referred": 6222,
      "southern": 6223,
      "Family": 6224,
      "arian": 6225,
      "accident": 6226,
      "holiday": 6227,
      "ears": 6228,
      "moves": 6229,
      "Plan": 6230,
      "Saint": 6231,
      "Process": 6232,
      "JS": 6233,
      "Ryan": 6234,
      "96": 6235,
      "layout": 6236,
      "vm": 6237,
      "regional": 6238,
      "rapid": 6239,
      "Conference": 6240,
      "Pay": 6241,
      "reviews": 6242,
      "Rand": 6243,
      "vania": 6244,
      "browser": 6245,
      "Update": 6246,
      "sight": 6247,
      "wave": 6248,
      "lies": 6249,
      "eries": 6250,
      "Server": 6251,
      "Execut": 6252,
      "specifically": 6253,
      "Sa": 6254,
      "founder": 6255,
      "Vill": 6256,
      "expans": 6257,
      "gall": 6258,
      "vement": 6259,
      "NOT": 6260,
      "Phone": 6261,
      "grew": 6262,
      "Client": 6263,
      "ensor": 6264,
      "schema": 6265,
      "ctx": 6266,
      "communication": 6267,
      "GE": 6268,
      "itors": 6269,
      "winner": 6270,
      "decide": 6271,
      "sheet": 6272,
      "industrial": 6273,
      "Amazon": 6274,
      "shock": 6275,
      "ultural": 6276,
      "Ray": 6277,
      "inspired": 6278,
      "clip": 6279,
      "Custom": 6280,
      "================================": 6281,
      "doubt": 6282,
      "recip": 6283,
      "azz": 6284,
      "covery": 6285,
      "ishop": 6286,
      "Civil": 6287,
      "Jeff": 6288,
      "oles": 6289,
      "800": 6290,
      "confirm": 6291,
      "Ele": 6292,
      "cin": 6293,
      "soldiers": 6294,
      "GP": 6295,
      "drugs": 6296,
      "concerned": 6297,
      "updates": 6298,
      "hidden": 6299,
      "Count": 6300,
      "advice": 6301,
      "vas": 6302,
      ":]": 6303,
      "linked": 6304,
      "titles": 6305,
      "proceed": 6306,
      "Sher": 6307,
      "domestic": 6308,
      "timestamp": 6309,
      "1985": 6310,
      "Report": 6311,
      "facilities": 6312,
      "!\"": 6313,
      "prev": 6314,
      "bann": 6315,
      "egg": 6316,
      "Gui": 6317,
      "structures": 6318,
      "fab": 6319,
      "icing": 6320,
      "recording": 6321,
      "passeng": 6322,
      "experts": 6323,
      "hr": 6324,
      "addr": 6325,
      "tok": 6326,
      "Live": 6327,
      "patterns": 6328,
      "repo": 6329,
      "noon": 6330,
      "Pakistan": 6331,
      "athlet": 6332,
      "raises": 6333,
      "frag": 6334,
      "summary": 6335,
      "identify": 6336,
      "rating": 6337,
      "Ep": 6338,
      "worse": 6339,
      "Bon": 6340,
      "uana": 6341,
      "faced": 6342,
      "Turn": 6343,
      "Android": 6344,
      "Georgia": 6345,
      "apy": 6346,
      "cuts": 6347,
      "posts": 6348,
      "accused": 6349,
      "Master": 6350,
      "targets": 6351,
      "2023": 6352,
      "250": 6353,
      "delet": 6354,
      "lad": 6355,
      "rier": 6356,
      "dropped": 6357,
      "medal": 6358,
      "stal": 6359,
      "Brook": 6360,
      "Battle": 6361,
      "facility": 6362,
      "sin": 6363,
      "stitution": 6364,
      "Matt": 6365,
      "sharing": 6366,
      "Jersey": 6367,
      "loved": 6368,
      "actors": 6369,
      "photograph": 6370,
      "combination": 6371,
      "victims": 6372,
      "channels": 6373,
      "Lar": 6374,
      "Harr": 6375,
      "lov": 6376,
      "AF": 6377,
      "dangerous": 6378,
      "earn": 6379,
      "Global": 6380,
      "iano": 6381,
      "Fer": 6382,
      "conven": 6383,
      "nearby": 6384,
      "lyn": 6385,
      "Kim": 6386,
      "Scotland": 6387,
      "Wis": 6388,
      "js": 6389,
      "nan": 6390,
      "icted": 6391,
      "truck": 6392,
      "Aud": 6393,
      "transition": 6394,
      "compile": 6395,
      "troops": 6396,
      "filed": 6397,
      "roles": 6398,
      "trees": 6399,
      "decre": 6400,
      "Product": 6401,
      "virtual": 6402,
      "sounds": 6403,
      "plom": 6404,
      "NH": 6405,
      "%.": 6406,
      "iro": 6407,
      "successfully": 6408,
      "Centre": 6409,
      "Advertisement": 6410,
      "\").": 6411,
      "Cir": 6412,
      "challenges": 6413,
      "responsibility": 6414,
      "encode": 6415,
      "uuid": 6416,
      "DP": 6417,
      "98": 6418,
      "footballers": 6419,
      "scious": 6420,
      "Tot": 6421,
      "planet": 6422,
      "Ba": 6423,
      "Parser": 6424,
      "veter": 6425,
      "600": 6426,
      "Night": 6427,
      "ulations": 6428,
      "dialog": 6429,
      "prime": 6430,
      "crowd": 6431,
      "turns": 6432,
      "outer": 6433,
      "rence": 6434,
      "worker": 6435,
      "stores": 6436,
      "musical": 6437,
      "pled": 6438,
      "agues": 6439,
      "worst": 6440,
      "Hillary": 6441,
      "Mah": 6442,
      "carbon": 6443,
      "recru": 6444,
      "mixed": 6445,
      "valu": 6446,
      "contents": 6447,
      "Daniel": 6448,
      "Little": 6449,
      "tight": 6450,
      "creative": 6451,
      "geo": 6452,
      "ario": 6453,
      "Bor": 6454,
      "regions": 6455,
      "stret": 6456,
      "singer": 6457,
      "Though": 6458,
      "phones": 6459,
      "cohol": 6460,
      "amin": 6461,
      "conversation": 6462,
      "reader": 6463,
      "consumer": 6464,
      "repr": 6465,
      "gon": 6466,
      "cker": 6467,
      "adel": 6468,
      "institutions": 6469,
      "fake": 6470,
      "politician": 6471,
      "supporting": 6472,
      "loads": 6473,
      "Queen": 6474,
      "validate": 6475,
      "millions": 6476,
      "Dir": 6477,
      "acknow": 6478,
      "gay": 6479,
      "antly": 6480,
      "dram": 6481,
      "evening": 6482,
      "proof": 6483,
      "flex": 6484,
      "harm": 6485,
      "Kent": 6486,
      "bringing": 6487,
      "fee": 6488,
      "perspect": 6489,
      "tip": 6490,
      "clude": 6491,
      "Fall": 6492,
      "copyright": 6493,
      "hate": 6494,
      "facing": 6495,
      "follows": 6496,
      "contrast": 6497,
      "Search": 6498,
      "authors": 6499,
      "unior": 6500,
      "'},": 6501,
      "Local": 6502,
      "tables": 6503,
      "ypes": 6504,
      "spoke": 6505,
      "leads": 6506,
      "wd": 6507,
      "mann": 6508,
      "anth": 6509,
      "Afghan": 6510,
      "Cons": 6511,
      "Pennsyl": 6512,
      "fortunately": 6513,
      "modules": 6514,
      "Rog": 6515,
      "entries": 6516,
      "reh": 6517,
      "Input": 6518,
      "Tay": 6519,
      "Ly": 6520,
      "ultimately": 6521,
      "Eastern": 6522,
      "experiences": 6523,
      "pc": 6524,
      "scheme": 6525,
      "PAT": 6526,
      "HTML": 6527,
      "quarters": 6528,
      "MB": 6529,
      "aka": 6530,
      "newspaper": 6531,
      "lake": 6532,
      "tered": 6533,
      "Register": 6534,
      "wire": 6535,
      "inent": 6536,
      "Status": 6537,
      "stances": 6538,
      "aining": 6539,
      "processes": 6540,
      "Ã³n": 6541,
      "revolution": 6542,
      "vector": 6543,
      "dol": 6544,
      "scheduled": 6545,
      "ijuana": 6546,
      "Handler": 6547,
      "Coast": 6548,
      "Dam": 6549,
      "ART": 6550,
      "icket": 6551,
      "HE": 6552,
      "gro": 6553,
      "iverse": 6554,
      "ingu": 6555,
      "Korean": 6556,
      "promise": 6557,
      "Version": 6558,
      "1983": 6559,
      "vul": 6560,
      "thank": 6561,
      "abort": 6562,
      "distributed": 6563,
      "Äģ": 6564,
      "wheel": 6565,
      "ains": 6566,
      "_(": 6567,
      "killing": 6568,
      "Default": 6569,
      "bench": 6570,
      "Later": 6571,
      "Yet": 6572,
      "Saf": 6573,
      "Pennsylvania": 6574,
      "Raises": 6575,
      "sac": 6576,
      "shots": 6577,
      "nur": 6578,
      "inher": 6579,
      "KEY": 6580,
      "motion": 6581,
      "manufactur": 6582,
      "Hou": 6583,
      "]),": 6584,
      "properly": 6585,
      "sud": 6586,
      "Factory": 6587,
      "volunte": 6588,
      "Turkey": 6589,
      "dictionary": 6590,
      "ona": 6591,
      "capable": 6592,
      "scape": 6593,
      "seeking": 6594,
      "bury": 6595,
      "campus": 6596,
      "abuse": 6597,
      "Cub": 6598,
      "Mir": 6599,
      "ophy": 6600,
      "reform": 6601,
      "coll": 6602,
      "Ali": 6603,
      "Control": 6604,
      "commands": 6605,
      "unable": 6606,
      "refuge": 6607,
      "emphas": 6608,
      "packages": 6609,
      "academic": 6610,
      "organized": 6611,
      "SQ": 6612,
      "declared": 6613,
      "icide": 6614,
      "Columb": 6615,
      "Sect": 6616,
      "edia": 6617,
      "solar": 6618,
      "UI": 6619,
      "elder": 6620,
      "ULT": 6621,
      "controlled": 6622,
      "Hun": 6623,
      "']:": 6624,
      "armed": 6625,
      "conscious": 6626,
      "Community": 6627,
      "ole": 6628,
      "narr": 6629,
      "pray": 6630,
      "}}": 6631,
      "Take": 6632,
      "transaction": 6633,
      "cod": 6634,
      "drivers": 6635,
      "ä¸": 6636,
      "holder": 6637,
      "ows": 6638,
      "breaking": 6639,
      "1979": 6640,
      "roof": 6641,
      "1982": 6642,
      "encoun": 6643,
      "drama": 6644,
      "pu": 6645,
      "paying": 6646,
      "Dutch": 6647,
      "ading": 6648,
      "97": 6649,
      "widely": 6650,
      "covering": 6651,
      "pg": 6652,
      "teaching": 6653,
      "Members": 6654,
      "DIR": 6655,
      "iency": 6656,
      "WE": 6657,
      "mile": 6658,
      "dd": 6659,
      "Cru": 6660,
      "ias": 6661,
      "attempts": 6662,
      "Pen": 6663,
      "classic": 6664,
      "tz": 6665,
      "favour": 6666,
      "ancient": 6667,
      "conservative": 6668,
      "NAS": 6669,
      "Information": 6670,
      "feels": 6671,
      "stim": 6672,
      "WAR": 6673,
      "percentage": 6674,
      "languages": 6675,
      "Official": 6676,
      "chosen": 6677,
      "delivery": 6678,
      "distinct": 6679,
      "\"])": 6680,
      "Wales": 6681,
      "alongside": 6682,
      "Full": 6683,
      "agencies": 6684,
      "doors": 6685,
      "bits": 6686,
      "lit": 6687,
      "restaurant": 6688,
      "ureau": 6689,
      "flash": 6690,
      "bodies": 6691,
      "warr": 6692,
      "greatest": 6693,
      "VE": 6694,
      "humans": 6695,
      "ails": 6696,
      "snow": 6697,
      "Valid": 6698,
      "Ga": 6699,
      "modified": 6700,
      "vice": 6701,
      "trick": 6702,
      "algorith": 6703,
      "practices": 6704,
      "squad": 6705,
      "Greg": 6706,
      "chester": 6707,
      "ugby": 6708,
      "Environ": 6709,
      "Ðº": 6710,
      "esh": 6711,
      "Jr": 6712,
      "confidence": 6713,
      "treated": 6714,
      "defeated": 6715,
      "las": 6716,
      "obl": 6717,
      "absolutely": 6718,
      "120": 6719,
      ".âĢĻ": 6720,
      "POST": 6721,
      "Assembly": 6722,
      "journey": 6723,
      "quote": 6724,
      "heads": 6725,
      "Broad": 6726,
      "Does": 6727,
      "medium": 6728,
      "Kur": 6729,
      "consistent": 6730,
      "delivered": 6731,
      "saved": 6732,
      "exercise": 6733,
      "encing": 6734,
      "ounger": 6735,
      "god": 6736,
      "diagno": 6737,
      "Method": 6738,
      "begins": 6739,
      "prepare": 6740,
      "infrastructure": 6741,
      "historic": 6742,
      "drawn": 6743,
      "eful": 6744,
      "Through": 6745,
      "suggests": 6746,
      "inform": 6747,
      "dating": 6748,
      "Sho": 6749,
      "faster": 6750,
      "FILE": 6751,
      "(?": 6752,
      "quiet": 6753,
      "ached": 6754,
      "clock": 6755,
      "Wild": 6756,
      "DR": 6757,
      "stract": 6758,
      "religion": 6759,
      "nock": 6760,
      ")[": 6761,
      "aks": 6762,
      "latter": 6763,
      "Colorado": 6764,
      "derr": 6765,
      "Sel": 6766,
      "XXXX": 6767,
      "Sport": 6768,
      "capture": 6769,
      "expl": 6770,
      "emergency": 6771,
      "QtGui": 6772,
      "mainly": 6773,
      "fiction": 6774,
      "Fri": 6775,
      "Sess": 6776,
      "[:,": 6777,
      "clubs": 6778,
      "significantly": 6779,
      "assets": 6780,
      "Ow": 6781,
      "affil": 6782,
      "Chann": 6783,
      "Son": 6784,
      "PN": 6785,
      "Layout": 6786,
      "getattr": 6787,
      "Gor": 6788,
      "honest": 6789,
      "iron": 6790,
      "receiving": 6791,
      "rush": 6792,
      "Market": 6793,
      "ideal": 6794,
      "Short": 6795,
      "aven": 6796,
      "fifth": 6797,
      "contrib": 6798,
      "git": 6799,
      "believes": 6800,
      "covers": 6801,
      "importance": 6802,
      "expressed": 6803,
      "instrument": 6804,
      "lights": 6805,
      "define": 6806,
      "hass": 6807,
      "burgh": 6808,
      "shir": 6809,
      "sudden": 6810,
      "isol": 6811,
      "cles": 6812,
      "Management": 6813,
      "Tree": 6814,
      "renew": 6815,
      "incorpor": 6816,
      "GM": 6817,
      "bat": 6818,
      "Bol": 6819,
      "supporters": 6820,
      "broke": 6821,
      "desk": 6822,
      "123": 6823,
      "binary": 6824,
      "ration": 6825,
      "Kir": 6826,
      "Bang": 6827,
      "Final": 6828,
      "oration": 6829,
      "uce": 6830,
      "resc": 6831,
      "Cha": 6832,
      "alert": 6833,
      "prospect": 6834,
      "Sem": 6835,
      "decode": 6836,
      "establishments": 6837,
      "aug": 6838,
      "vin": 6839,
      "boat": 6840,
      "protected": 6841,
      "windows": 6842,
      "wash": 6843,
      "proposal": 6844,
      "reset": 6845,
      "tweet": 6846,
      "amber": 6847,
      "fired": 6848,
      "nt": 6849,
      "IE": 6850,
      "ITY": 6851,
      "assigned": 6852,
      "enforcement": 6853,
      "bigger": 6854,
      "thir": 6855,
      "Import": 6856,
      "flav": 6857,
      "achu": 6858,
      "aggress": 6859,
      "worry": 6860,
      "motiv": 6861,
      "allel": 6862,
      "combat": 6863,
      "taxes": 6864,
      "Software": 6865,
      "causes": 6866,
      "beer": 6867,
      "Corpor": 6868,
      "infl": 6869,
      "Ye": 6870,
      "iler": 6871,
      "Comput": 6872,
      "reaction": 6873,
      "Empire": 6874,
      "stable": 6875,
      "cuit": 6876,
      "pleas": 6877,
      "1981": 6878,
      "sitting": 6879,
      "stro": 6880,
      "vast": 6881,
      "ampions": 6882,
      "inois": 6883,
      "brid": 6884,
      "possibility": 6885,
      "Ah": 6886,
      "Ã§": 6887,
      "Energy": 6888,
      "Por": 6889,
      "fundam": 6890,
      "sect": 6891,
      "closer": 6892,
      "signs": 6893,
      "ols": 6894,
      "ERS": 6895,
      "hex": 6896,
      "personnel": 6897,
      "forget": 6898,
      "fro": 6899,
      "proxy": 6900,
      "stderr": 6901,
      "surrounding": 6902,
      "plenty": 6903,
      "redirect": 6904,
      "coffee": 6905,
      "thy": 6906,
      "Mock": 6907,
      "engineering": 6908,
      "agents": 6909,
      "igen": 6910,
      "isted": 6911,
      "Syn": 6912,
      "Tenn": 6913,
      "gene": 6914,
      "\"}": 6915,
      "Nick": 6916,
      "symp": 6917,
      "phr": 6918,
      "graduate": 6919,
      "crete": 6920,
      "ogy": 6921,
      "glob": 6922,
      "ifest": 6923,
      "ESS": 6924,
      "acle": 6925,
      "Os": 6926,
      "spin": 6927,
      "iat": 6928,
      "TC": 6929,
      "offensive": 6930,
      "supports": 6931,
      "Turk": 6932,
      "EP": 6933,
      "herself": 6934,
      "Beach": 6935,
      "accompl": 6936,
      "Sanders": 6937,
      "Ox": 6938,
      "Metro": 6939,
      "walking": 6940,
      "Fair": 6941,
      "grees": 6942,
      "represents": 6943,
      "prise": 6944,
      "Bio": 6945,
      "operate": 6946,
      "Label": 6947,
      "crack": 6948,
      "signature": 6949,
      "backs": 6950,
      "cv": 6951,
      "primarily": 6952,
      "Scottish": 6953,
      "pure": 6954,
      "museum": 6955,
      "resulting": 6956,
      "recognized": 6957,
      "#!": 6958,
      "Palestin": 6959,
      "ratio": 6960,
      "iang": 6961,
      "Sky": 6962,
      "1972": 6963,
      "tel": 6964,
      "boost": 6965,
      "prin": 6966,
      "Illinois": 6967,
      "retire": 6968,
      "ered": 6969,
      "featuring": 6970,
      "mu": 6971,
      "cd": 6972,
      ".')": 6973,
      "ication": 6974,
      "implementation": 6975,
      "improved": 6976,
      "resign": 6977,
      "92": 6978,
      "LI": 6979,
      "suffered": 6980,
      "expansion": 6981,
      "tested": 6982,
      "strings": 6983,
      "Ð»": 6984,
      "concert": 6985,
      "una": 6986,
      "waste": 6987,
      "sentence": 6988,
      "subprocess": 6989,
      "preced": 6990,
      "stands": 6991,
      "~~~~": 6992,
      "Hom": 6993,
      "passion": 6994,
      "Latin": 6995,
      "conclus": 6996,
      "zona": 6997,
      "crop": 6998,
      "retired": 6999,
      "eno": 7000,
      "94": 7001,
      "sia": 7002,
      "1976": 7003,
      "Columbia": 7004,
      "Have": 7005,
      "increasingly": 7006,
      "relationships": 7007,
      "bear": 7008,
      "Represent": 7009,
      "sessions": 7010,
      "fetch": 7011,
      "rie": 7012,
      "adapt": 7013,
      "Maybe": 7014,
      "Der": 7015,
      "Hard": 7016,
      "opposed": 7017,
      "Still": 7018,
      "legend": 7019,
      "Invest": 7020,
      "segment": 7021,
      "powers": 7022,
      "impossible": 7023,
      "Technology": 7024,
      "Â°": 7025,
      "enemy": 7026,
      "silver": 7027,
      "differences": 7028,
      "shar": 7029,
      "Again": 7030,
      "ticket": 7031,
      "promote": 7032,
      "rif": 7033,
      "ulty": 7034,
      "Anton": 7035,
      "liqu": 7036,
      "ifications": 7037,
      "eq": 7038,
      "Dy": 7039,
      "pd": 7040,
      "alcohol": 7041,
      "Death": 7042,
      "payload": 7043,
      "Viet": 7044,
      "scores": 7045,
      "93": 7046,
      "Brad": 7047,
      "compress": 7048,
      "sufficient": 7049,
      "grown": 7050,
      "baseball": 7051,
      "equival": 7052,
      "raising": 7053,
      "iture": 7054,
      "1978": 7055,
      "ailed": 7056,
      "LOG": 7057,
      "Vari": 7058,
      "yellow": 7059,
      "developers": 7060,
      "substant": 7061,
      "streets": 7062,
      "illy": 7063,
      "clar": 7064,
      "detailed": 7065,
      "complic": 7066,
      "statistics": 7067,
      "gotten": 7068,
      "Tha": 7069,
      "CK": 7070,
      "frequently": 7071,
      "neur": 7072,
      "Ukraine": 7073,
      "thick": 7074,
      "lec": 7075,
      "ym": 7076,
      "'][": 7077,
      "Medical": 7078,
      "obtained": 7079,
      "colour": 7080,
      "beach": 7081,
      "gery": 7082,
      "cipl": 7083,
      "ORT": 7084,
      "Daily": 7085,
      "revenue": 7086,
      "furn": 7087,
      "Davis": 7088,
      "refused": 7089,
      "studied": 7090,
      "ulf": 7091,
      "Rest": 7092,
      "cou": 7093,
      "otic": 7094,
      "abandon": 7095,
      "turning": 7096,
      "Chang": 7097,
      "maker": 7098,
      "ipal": 7099,
      "kitchen": 7100,
      "gap": 7101,
      "Arizona": 7102,
      "beth": 7103,
      "operator": 7104,
      "occasion": 7105,
      "wins": 7106,
      "attorney": 7107,
      "TYPE": 7108,
      "attrs": 7109,
      "province": 7110,
      "intent": 7111,
      "teachers": 7112,
      "Story": 7113,
      "loaded": 7114,
      "shr": 7115,
      "ordinary": 7116,
      "actress": 7117,
      "priority": 7118,
      "dance": 7119,
      "setts": 7120,
      "Prince": 7121,
      "Transport": 7122,
      "visited": 7123,
      "Ak": 7124,
      "iments": 7125,
      "rip": 7126,
      "sweet": 7127,
      "MD": 7128,
      "Tax": 7129,
      "Access": 7130,
      "wo": 7131,
      "younger": 7132,
      "1975": 7133,
      "âĪ": 7134,
      "Wilson": 7135,
      "movies": 7136,
      "Langu": 7137,
      "verify": 7138,
      "rated": 7139,
      "driven": 7140,
      "chat": 7141,
      "kern": 7142,
      "stance": 7143,
      "Edward": 7144,
      "voted": 7145,
      "Bat": 7146,
      "Minnes": 7147,
      "collections": 7148,
      "vard": 7149,
      "Massachu": 7150,
      "automatically": 7151,
      "gian": 7152,
      "Wa": 7153,
      "Season": 7154,
      "officially": 7155,
      "ained": 7156,
      "storm": 7157,
      "FBI": 7158,
      "ked": 7159,
      "framework": 7160,
      "Ol": 7161,
      "Tube": 7162,
      "boards": 7163,
      "Labour": 7164,
      "franch": 7165,
      "Place": 7166,
      "Championships": 7167,
      "Mach": 7168,
      "pad": 7169,
      "opts": 7170,
      "Massachusetts": 7171,
      "###": 7172,
      "networks": 7173,
      "poet": 7174,
      "Philipp": 7175,
      "techniques": 7176,
      "marijuana": 7177,
      "1968": 7178,
      "shif": 7179,
      "awn": 7180,
      "1974": 7181,
      "bra": 7182,
      "pid": 7183,
      "duration": 7184,
      "steel": 7185,
      "improv": 7186,
      "welcome": 7187,
      "destination": 7188,
      "talks": 7189,
      "sections": 7190,
      "aux": 7191,
      "Kenn": 7192,
      "Cro": 7193,
      "horse": 7194,
      "Nav": 7195,
      "episodes": 7196,
      "Anth": 7197,
      "inputs": 7198,
      "categories": 7199,
      "guns": 7200,
      "exceptions": 7201,
      "frequency": 7202,
      "Pu": 7203,
      "captured": 7204,
      "excited": 7205,
      "Produ": 7206,
      "Naz": 7207,
      "spaces": 7208,
      "diplom": 7209,
      "intend": 7210,
      "Chair": 7211,
      "ione": 7212,
      "degrees": 7213,
      "Contin": 7214,
      "ERR": 7215,
      "'--": 7216,
      "magic": 7217,
      "graphics": 7218,
      "battery": 7219,
      "Indust": 7220,
      "DAT": 7221,
      "Minnesota": 7222,
      "picked": 7223,
      "effectively": 7224,
      "Bell": 7225,
      "aret": 7226,
      "xb": 7227,
      "Did": 7228,
      "inspir": 7229,
      "Images": 7230,
      "athe": 7231,
      "1977": 7232,
      "programming": 7233,
      "Medic": 7234,
      "wers": 7235,
      "Hospital": 7236,
      "limits": 7237,
      "Task": 7238,
      "governor": 7239,
      "evol": 7240,
      "%)": 7241,
      "gift": 7242,
      "oured": 7243,
      "SER": 7244,
      "participants": 7245,
      "trained": 7246,
      "bg": 7247,
      "disput": 7248,
      "reput": 7249,
      "Mob": 7250,
      "itage": 7251,
      "defensive": 7252,
      "laugh": 7253,
      "purposes": 7254,
      "Holly": 7255,
      "smooth": 7256,
      "mate": 7257,
      "Whether": 7258,
      "pand": 7259,
      "satisf": 7260,
      "manner": 7261,
      "aded": 7262,
      "filters": 7263,
      "wearing": 7264,
      "Santa": 7265,
      "translation": 7266,
      "1973": 7267,
      "stein": 7268,
      "hasn": 7269,
      "Email": 7270,
      "grap": 7271,
      "Level": 7272,
      "Store": 7273,
      "lawyer": 7274,
      "Sus": 7275,
      "readers": 7276,
      "sync": 7277,
      "existence": 7278,
      "Tam": 7279,
      "jun": 7280,
      "elle": 7281,
      "ACK": 7282,
      "seats": 7283,
      "happening": 7284,
      "Food": 7285,
      "Portug": 7286,
      "Adam": 7287,
      "Professor": 7288,
      "wart": 7289,
      "observed": 7290,
      "DateTime": 7291,
      "apparently": 7292,
      "mapping": 7293,
      "1930": 7294,
      "await": 7295,
      "umes": 7296,
      "taught": 7297,
      "TODO": 7298,
      "eastern": 7299,
      "purchased": 7300,
      "thesis": 7301,
      "Ball": 7302,
      "conver": 7303,
      "communications": 7304,
      "collap": 7305,
      "Cas": 7306,
      "returning": 7307,
      "operated": 7308,
      "cheap": 7309,
      "Spring": 7310,
      "........": 7311,
      "extr": 7312,
      "surprise": 7313,
      "Taylor": 7314,
      "SM": 7315,
      "Ð²": 7316,
      "SD": 7317,
      "mont": 7318,
      "1940": 7319,
      "parliament": 7320,
      "AU": 7321,
      "atmo": 7322,
      "scar": 7323,
      "]+": 7324,
      "hosts": 7325,
      "elines": 7326,
      "kil": 7327,
      "evin": 7328,
      "afternoon": 7329,
      "soc": 7330,
      "wonderful": 7331,
      "reporting": 7332,
      "consumers": 7333,
      "Luc": 7334,
      "acquired": 7335,
      "Has": 7336,
      "Labor": 7337,
      "({": 7338,
      "responding": 7339,
      "'__": 7340,
      "Channel": 7341,
      "Arg": 7342,
      "Cook": 7343,
      ".*": 7344,
      "matters": 7345,
      "considering": 7346,
      "Mos": 7347,
      "OT": 7348,
      "tact": 7349,
      "LED": 7350,
      "startswith": 7351,
      "tenance": 7352,
      "pub": 7353,
      "servers": 7354,
      "Ag": 7355,
      "Jews": 7356,
      "architecture": 7357,
      "connections": 7358,
      "buying": 7359,
      "Band": 7360,
      "Houston": 7361,
      "Job": 7362,
      "layers": 7363,
      "perspective": 7364,
      "McC": 7365,
      "png": 7366,
      "confident": 7367,
      "Nations": 7368,
      "kel": 7369,
      "phia": 7370,
      "slug": 7371,
      "proud": 7372,
      "adult": 7373,
      "athan": 7374,
      "Jean": 7375,
      "narrow": 7376,
      "injured": 7377,
      "depending": 7378,
      "Remo": 7379,
      "Ht": 7380,
      "iant": 7381,
      "sive": 7382,
      "vulner": 7383,
      "SQL": 7384,
      "statements": 7385,
      "hits": 7386,
      "grab": 7387,
      "Career": 7388,
      "Wars": 7389,
      "Property": 7390,
      "Var": 7391,
      "Area": 7392,
      "mates": 7393,
      "Sn": 7394,
      "hole": 7395,
      "embr": 7396,
      "solve": 7397,
      "Hung": 7398,
      "assertRaises": 7399,
      "EV": 7400,
      "Governor": 7401,
      "ACT": 7402,
      "hu": 7403,
      "compare": 7404,
      "Ath": 7405,
      "compreh": 7406,
      "gry": 7407,
      "newly": 7408,
      "Kong": 7409,
      "destroyed": 7410,
      "collected": 7411,
      "forest": 7412,
      "LD": 7413,
      "goods": 7414,
      "Among": 7415,
      "Sever": 7416,
      "vation": 7417,
      "ila": 7418,
      "potentially": 7419,
      "Stephen": 7420,
      "âĤ": 7421,
      "aming": 7422,
      "comedy": 7423,
      "1971": 7424,
      "Boolean": 7425,
      "inn": 7426,
      "inations": 7427,
      "wine": 7428,
      "esterday": 7429,
      "Philadel": 7430,
      "privacy": 7431,
      "Hong": 7432,
      "folk": 7433,
      "courses": 7434,
      "1969": 7435,
      "neut": 7436,
      "granted": 7437,
      "manual": 7438,
      "warrant": 7439,
      "Script": 7440,
      "secondary": 7441,
      "****************": 7442,
      "extent": 7443,
      "Invalid": 7444,
      "thres": 7445,
      "SR": 7446,
      "à¸": 7447,
      "ira": 7448,
      "maps": 7449,
      "lang": 7450,
      "Rout": 7451,
      "regon": 7452,
      "comfort": 7453,
      "writes": 7454,
      "bol": 7455,
      "edges": 7456,
      "Select": 7457,
      "stic": 7458,
      "proc": 7459,
      "stretch": 7460,
      "Brian": 7461,
      "Avenue": 7462,
      "Seattle": 7463,
      "ili": 7464,
      "appeal": 7465,
      "Meanwhile": 7466,
      "retr": 7467,
      "embed": 7468,
      "91": 7469,
      "ruption": 7470,
      "Philadelphia": 7471,
      "beta": 7472,
      "immigration": 7473,
      "chairman": 7474,
      "weapon": 7475,
      "Malay": 7476,
      "DV": 7477,
      "Pad": 7478,
      "Player": 7479,
      "describe": 7480,
      "Attribute": 7481,
      "thoughts": 7482,
      "Low": 7483,
      "Using": 7484,
      "typical": 7485,
      "imagine": 7486,
      "1967": 7487,
      "documentation": 7488,
      "owa": 7489,
      "ami": 7490,
      "brings": 7491,
      "Children": 7492,
      "closely": 7493,
      "Dark": 7494,
      "Rights": 7495,
      "idae": 7496,
      "competitive": 7497,
      "MC": 7498,
      "endor": 7499,
      "Dri": 7500,
      "yers": 7501,
      "'})": 7502,
      "Ext": 7503,
      "Films": 7504,
      "interval": 7505,
      "Han": 7506,
      "pointed": 7507,
      "Hay": 7508,
      "ologist": 7509,
      "desire": 7510,
      "hardware": 7511,
      "surprising": 7512,
      "discover": 7513,
      ":%": 7514,
      "Äĩ": 7515,
      "noise": 7516,
      "Ford": 7517,
      "approval": 7518,
      "Syd": 7519,
      "Miller": 7520,
      "uten": 7521,
      "cabin": 7522,
      "voting": 7523,
      "headed": 7524,
      "Premier": 7525,
      "agric": 7526,
      "(__": 7527,
      "esome": 7528,
      "cfg": 7529,
      "eman": 7530,
      "sv": 7531,
      "#!/": 7532,
      "ensed": 7533,
      "Never": 7534,
      "1920": 7535,
      "fu": 7536,
      "diet": 7537,
      "adults": 7538,
      "pilot": 7539,
      "Nov": 7540,
      "Alexander": 7541,
      "assistance": 7542,
      "ento": 7543,
      "Priv": 7544,
      "ciples": 7545,
      "Argent": 7546,
      "consin": 7547,
      "Shar": 7548,
      "accurate": 7549,
      ";\"": 7550,
      "territory": 7551,
      "bike": 7552,
      "quir": 7553,
      "sad": 7554,
      "apol": 7555,
      "domin": 7556,
      "GA": 7557,
      "indu": 7558,
      "employee": 7559,
      "entr": 7560,
      "walls": 7561,
      "Ker": 7562,
      "partnership": 7563,
      "ongoing": 7564,
      "Wisconsin": 7565,
      "Row": 7566,
      "brown": 7567,
      "scoring": 7568,
      "fd": 7569,
      "!âĢĿ": 7570,
      "Kat": 7571,
      "iga": 7572,
      "anning": 7573,
      "breath": 7574,
      "Pi": 7575,
      "Golden": 7576,
      "hydro": 7577,
      "ummy": 7578,
      "Åį": 7579,
      "deck": 7580,
      "1945": 7581,
      "dirname": 7582,
      "Oregon": 7583,
      "metric": 7584,
      "defeat": 7585,
      "indeed": 7586,
      "causing": 7587,
      "Ã±": 7588,
      "Syrian": 7589,
      "honor": 7590,
      "theless": 7591,
      "----------------------------------------------------------------": 7592,
      "indices": 7593,
      "Kevin": 7594,
      "icken": 7595,
      "snap": 7596,
      "remind": 7597,
      "Historic": 7598,
      "championship": 7599,
      "serves": 7600,
      "FT": 7601,
      "aspects": 7602,
      "\"+": 7603,
      "'_": 7604,
      "veget": 7605,
      "sees": 7606,
      ")/": 7607,
      "vocals": 7608,
      "roads": 7609,
      "Na": 7610,
      "pod": 7611,
      "protein": 7612,
      "Robin": 7613,
      "inals": 7614,
      "employed": 7615,
      "reward": 7616,
      "trouble": 7617,
      "Rose": 7618,
      "accom": 7619,
      "respectively": 7620,
      "sures": 7621,
      "hill": 7622,
      "Support": 7623,
      "regularly": 7624,
      "BL": 7625,
      "Military": 7626,
      "argued": 7627,
      "implemented": 7628,
      "sought": 7629,
      "Keep": 7630,
      "Non": 7631,
      "YouTube": 7632,
      "representing": 7633,
      "trading": 7634,
      "ordan": 7635,
      "settlement": 7636,
      "governments": 7637,
      "gang": 7638,
      "eating": 7639,
      "Cost": 7640,
      "âĢ²": 7641,
      "Parameters": 7642,
      "'+": 7643,
      "constructed": 7644,
      "moral": 7645,
      "Si": 7646,
      ")\"": 7647,
      "permanent": 7648,
      "feedback": 7649,
      "affili": 7650,
      "endment": 7651,
      "Output": 7652,
      "alive": 7653,
      "Array": 7654,
      "xi": 7655,
      "Berlin": 7656,
      "ICE": 7657,
      "ths": 7658,
      "Poland": 7659,
      "offs": 7660,
      "tox": 7661,
      "facts": 7662,
      "ificate": 7663,
      "Ministry": 7664,
      "Da": 7665,
      "expanded": 7666,
      "convent": 7667,
      "chunk": 7668,
      "replacement": 7669,
      "expo": 7670,
      "docs": 7671,
      "Las": 7672,
      "rural": 7673,
      "Eliza": 7674,
      "surve": 7675,
      "hypo": 7676,
      "struggle": 7677,
      "scholar": 7678,
      "GL": 7679,
      "resistance": 7680,
      "codes": 7681,
      "ranked": 7682,
      "compute": 7683,
      "stored": 7684,
      "emails": 7685,
      "Sty": 7686,
      "Pur": 7687,
      "divided": 7688,
      "gling": 7689,
      "Railway": 7690,
      "agan": 7691,
      "Hop": 7692,
      "aced": 7693,
      "qualified": 7694,
      "matic": 7695,
      "ceived": 7696,
      "blast": 7697,
      "kit": 7698,
      "vary": 7699,
      "ilton": 7700,
      "opposite": 7701,
      "pregn": 7702,
      "endar": 7703,
      "Finally": 7704,
      "runner": 7705,
      "Tel": 7706,
      "isms": 7707,
      "discipl": 7708,
      "amoun": 7709,
      "Edit": 7710,
      "preser": 7711,
      "Prim": 7712,
      "discrim": 7713,
      "passes": 7714,
      "zeros": 7715,
      "seriously": 7716,
      "adds": 7717,
      "Gree": 7718,
      "Sydney": 7719,
      "injuries": 7720,
      "hockey": 7721,
      "duty": 7722,
      "Tony": 7723,
      "=>": 7724,
      "buf": 7725,
      "oded": 7726,
      "petition": 7727,
      "Conf": 7728,
      "ABC": 7729,
      "angers": 7730,
      "achel": 7731,
      "controller": 7732,
      "worldwide": 7733,
      "fruit": 7734,
      "aska": 7735,
      "âĤ¬": 7736,
      "Province": 7737,
      "utter": 7738,
      "alt": 7739,
      "jack": 7740,
      "equivalent": 7741,
      "incent": 7742,
      "1964": 7743,
      "moun": 7744,
      "lob": 7745,
      "enroll": 7746,
      "shares": 7747,
      "secretary": 7748,
      "submit": 7749,
      "fairly": 7750,
      "totally": 7751,
      "rible": 7752,
      "roit": 7753,
      "legit": 7754,
      "grass": 7755,
      "Thus": 7756,
      "titled": 7757,
      "Tro": 7758,
      "denied": 7759,
      "Fund": 7760,
      "Tun": 7761,
      "GR": 7762,
      "perm": 7763,
      "holders": 7764,
      "ighters": 7765,
      "(['": 7766,
      "Jam": 7767,
      "Bitcoin": 7768,
      "ourselves": 7769,
      "forth": 7770,
      "twitter": 7771,
      "NBA": 7772,
      "Ontar": 7773,
      "pump": 7774,
      "translate": 7775,
      "IntegerField": 7776,
      "Bridge": 7777,
      "registration": 7778,
      "Description": 7779,
      "ems": 7780,
      "âĢĶâĢĶ": 7781,
      "pdf": 7782,
      "Boy": 7783,
      "HP": 7784,
      "logo": 7785,
      "Som": 7786,
      "anna": 7787,
      "fees": 7788,
      "Online": 7789,
      "entit": 7790,
      "races": 7791,
      "Change": 7792,
      "iami": 7793,
      "listing": 7794,
      "requested": 7795,
      "pulled": 7796,
      "contained": 7797,
      "OUT": 7798,
      "prominent": 7799,
      "bare": 7800,
      "nell": 7801,
      "azy": 7802,
      "valuable": 7803,
      "Protect": 7804,
      "immediate": 7805,
      "hosted": 7806,
      "physic": 7807,
      "asty": 7808,
      "increases": 7809,
      "hide": 7810,
      "Cred": 7811,
      "wound": 7812,
      "Fish": 7813,
      "tap": 7814,
      "ett": 7815,
      "regime": 7816,
      "ruling": 7817,
      "comparison": 7818,
      "drawing": 7819,
      "formal": 7820,
      "themat": 7821,
      "meat": 7822,
      "reads": 7823,
      "ika": 7824,
      "salt": 7825,
      "ometry": 7826,
      "256": 7827,
      "extreme": 7828,
      "partial": 7829,
      "backend": 7830,
      "WIT": 7831,
      "=%": 7832,
      "awards": 7833,
      "GOP": 7834,
      "tokens": 7835,
      "vars": 7836,
      "tri": 7837,
      "enda": 7838,
      "ROM": 7839,
      "ito": 7840,
      "cutting": 7841,
      "Disney": 7842,
      "spokesman": 7843,
      "parallel": 7844,
      "Section": 7845,
      "instances": 7846,
      "recommended": 7847,
      "tray": 7848,
      "adopted": 7849,
      "commonly": 7850,
      "shad": 7851,
      "railway": 7852,
      "chr": 7853,
      "Kansas": 7854,
      "chron": 7855,
      "anywhere": 7856,
      "elig": 7857,
      "weights": 7858,
      "blow": 7859,
      "Six": 7860,
      "admitted": 7861,
      "plastic": 7862,
      "discussed": 7863,
      "Lind": 7864,
      "BB": 7865,
      "Sound": 7866,
      "enumerate": 7867,
      "grav": 7868,
      "extensive": 7869,
      "Offic": 7870,
      "gained": 7871,
      "Ontario": 7872,
      "Download": 7873,
      "annot": 7874,
      "Eric": 7875,
      "'',": 7876,
      "Language": 7877,
      "census": 7878,
      "Ã¢": 7879,
      "ifies": 7880,
      "realize": 7881,
      "fp": 7882,
      "Ot": 7883,
      "urally": 7884,
      "attempted": 7885,
      "pressed": 7886,
      "rose": 7887,
      "giant": 7888,
      "heavily": 7889,
      "sending": 7890,
      "scenes": 7891,
      "violent": 7892,
      "citizen": 7893,
      "DNA": 7894,
      "Print": 7895,
      "illustr": 7896,
      "128": 7897,
      "Ta": 7898,
      "toms": 7899,
      "usal": 7900,
      "explan": 7901,
      "GNU": 7902,
      "ema": 7903,
      "Word": 7904,
      "sons": 7905,
      "performing": 7906,
      "topics": 7907,
      "explore": 7908,
      "Java": 7909,
      "counting": 7910,
      "Miami": 7911,
      "density": 7912,
      "eler": 7913,
      "1965": 7914,
      "diam": 7915,
      "nations": 7916,
      "integer": 7917,
      "AGE": 7918,
      "foundation": 7919,
      "hire": 7920,
      "appearances": 7921,
      "publication": 7922,
      "cers": 7923,
      "SET": 7924,
      "carrying": 7925,
      "finds": 7926,
      "ithub": 7927,
      "airport": 7928,
      "reasonable": 7929,
      "visitors": 7930,
      "fname": 7931,
      "producing": 7932,
      "console": 7933,
      "Results": 7934,
      "Graph": 7935,
      "Stop": 7936,
      "chose": 7937,
      "Such": 7938,
      "swim": 7939,
      "pository": 7940,
      "Ell": 7941,
      "disk": 7942,
      "Cit": 7943,
      "CF": 7944,
      "involving": 7945,
      "evolution": 7946,
      "intel": 7947,
      "joining": 7948,
      "pton": 7949,
      "isa": 7950,
      "garden": 7951,
      "mining": 7952,
      "boss": 7953,
      "designs": 7954,
      "wedding": 7955,
      "aya": 7956,
      "PRE": 7957,
      "Jac": 7958,
      "Jordan": 7959,
      "achieved": 7960,
      "attached": 7961,
      "consists": 7962,
      "drag": 7963,
      "Ten": 7964,
      "eller": 7965,
      "milit": 7966,
      "ulpt": 7967,
      "Quest": 7968,
      "PATH": 7969,
      "literature": 7970,
      "delta": 7971,
      ").__": 7972,
      "knock": 7973,
      "scow": 7974,
      "JSON": 7975,
      "VAL": 7976,
      "semi": 7977,
      "pover": 7978,
      "kernel": 7979,
      "spons": 7980,
      "shops": 7981,
      "archive": 7982,
      "Univers": 7983,
      "linear": 7984,
      "alo": 7985,
      "ords": 7986,
      "answers": 7987,
      "Detroit": 7988,
      "kinds": 7989,
      "representation": 7990,
      "expr": 7991,
      "somewhat": 7992,
      "mart": 7993,
      "[(": 7994,
      "electronic": 7995,
      "emotional": 7996,
      "Sab": 7997,
      "DEFA": 7998,
      "closure": 7999,
      "bass": 8000,
      "ederation": 8001,
      "subsid": 8002,
      "Marg": 8003,
      "liberal": 8004,
      "basically": 8005,
      "von": 8006,
      "earning": 8007,
      "commitment": 8008,
      "regulations": 8009,
      "Rober": 8010,
      "ilit": 8011,
      "dogs": 8012,
      "cancel": 8013,
      "neither": 8014,
      "Query": 8015,
      "sensor": 8016,
      "belief": 8017,
      "deals": 8018,
      "thes": 8019,
      "Az": 8020,
      "dynamic": 8021,
      "circumstances": 8022,
      "Fix": 8023,
      "chant": 8024,
      "inx": 8025,
      "een": 8026,
      "¿½": 8027,
      "bird": 8028,
      "membership": 8029,
      "Les": 8030,
      "asset": 8031,
      "investors": 8032,
      "Pict": 8033,
      "Atlantic": 8034,
      "responded": 8035,
      "manifest": 8036,
      "Ø§": 8037,
      "Harry": 8038,
      "captain": 8039,
      "iPhone": 8040,
      "1966": 8041,
      "Document": 8042,
      "appointment": 8043,
      "Victoria": 8044,
      "Iowa": 8045,
      "Lau": 8046,
      "shopping": 8047,
      "Saudi": 8048,
      "Trust": 8049,
      "Pit": 8050,
      "Application": 8051,
      "('\\": 8052,
      "resulted": 8053,
      "Mexican": 8054,
      "Oak": 8055,
      "singles": 8056,
      "Result": 8057,
      "exciting": 8058,
      "Defense": 8059,
      "rub": 8060,
      "eras": 8061,
      "promised": 8062,
      "mn": 8063,
      "participate": 8064,
      "creates": 8065,
      "icate": 8066,
      "hurt": 8067,
      "ented": 8068,
      "Context": 8069,
      "'<": 8070,
      "cb": 8071,
      "fur": 8072,
      "descript": 8073,
      "Stone": 8074,
      "HA": 8075,
      "addresses": 8076,
      "BR": 8077,
      "NBC": 8078,
      "ï¿½": 8079,
      "hes": 8080,
      "Dall": 8081,
      "Tai": 8082,
      "technologies": 8083,
      "necessarily": 8084,
      "temporary": 8085,
      "enjoyed": 8086,
      "MI": 8087,
      "Revolution": 8088,
      "printed": 8089,
      "locked": 8090,
      "Personal": 8091,
      "Aff": 8092,
      "parking": 8093,
      "Member": 8094,
      "110": 8095,
      "warnings": 8096,
      "pending": 8097,
      "Moscow": 8098,
      "Dial": 8099,
      "fasc": 8100,
      "catalog": 8101,
      "machines": 8102,
      "moments": 8103,
      "Ven": 8104,
      "ANY": 8105,
      "copies": 8106,
      "ingred": 8107,
      "hopes": 8108,
      "INE": 8109,
      "Lef": 8110,
      "recovery": 8111,
      "shouldn": 8112,
      "AutoField": 8113,
      "Cry": 8114,
      "Oxford": 8115,
      "roughly": 8116,
      "fits": 8117,
      "nb": 8118,
      "Polish": 8119,
      "sla": 8120,
      "Oct": 8121,
      "Bron": 8122,
      "Alli": 8123,
      "zing": 8124,
      "trend": 8125,
      "surgery": 8126,
      "Winter": 8127,
      "managers": 8128,
      "perial": 8129,
      "Equals": 8130,
      "contemporary": 8131,
      "sels": 8132,
      "reply": 8133,
      "Match": 8134,
      "controls": 8135,
      "Ky": 8136,
      "relax": 8137,
      "Afghanistan": 8138,
      "engaged": 8139,
      "hen": 8140,
      "Stock": 8141,
      "Hollywood": 8142,
      "maintenance": 8143,
      "refresh": 8144,
      "Unit": 8145,
      "sha": 8146,
      "iy": 8147,
      "Dor": 8148,
      "Theatre": 8149,
      "riate": 8150,
      "Fa": 8151,
      "meetings": 8152,
      "iner": 8153,
      "Sche": 8154,
      "Step": 8155,
      "ãĢ": 8156,
      "cock": 8157,
      "obviously": 8158,
      "iest": 8159,
      "informed": 8160,
      "Dead": 8161,
      "Manchester": 8162,
      "Pot": 8163,
      "checks": 8164,
      "signing": 8165,
      "Lyn": 8166,
      "practical": 8167,
      "flying": 8168,
      "excess": 8169,
      "educational": 8170,
      "rear": 8171,
      "Profile": 8172,
      "Gallery": 8173,
      "ulous": 8174,
      "oh": 8175,
      "=['": 8176,
      "sick": 8177,
      "severe": 8178,
      "payments": 8179,
      "sugar": 8180,
      "threshold": 8181,
      "neck": 8182,
      "ati": 8183,
      "styles": 8184,
      "CNN": 8185,
      "laid": 8186,
      "Indiana": 8187,
      "Turkish": 8188,
      "chapter": 8189,
      "explains": 8190,
      "urls": 8191,
      "Knight": 8192,
      "prohib": 8193,
      "Stadium": 8194,
      "busy": 8195,
      "END": 8196,
      "ilty": 8197,
      "umin": 8198,
      "rey": 8199,
      "tear": 8200,
      "DEFAULT": 8201,
      "âĸ": 8202,
      "rising": 8203,
      "aggreg": 8204,
      "gt": 8205,
      "Ka": 8206,
      "manufacturing": 8207,
      "ibly": 8208,
      "frustr": 8209,
      "Elizabeth": 8210,
      "suffering": 8211,
      "Qual": 8212,
      "STR": 8213,
      "iel": 8214,
      "Country": 8215,
      "astro": 8216,
      "mayor": 8217,
      "encourage": 8218,
      "critics": 8219,
      "Front": 8220,
      "papers": 8221,
      "Ever": 8222,
      "Agency": 8223,
      "aside": 8224,
      "sop": 8225,
      "Tests": 8226,
      "Address": 8227,
      "Function": 8228,
      "Ref": 8229,
      "Total": 8230,
      "trib": 8231,
      "crimes": 8232,
      "painting": 8233,
      "explicit": 8234,
      "disable": 8235,
      "SW": 8236,
      "rival": 8237,
      "////": 8238,
      "OL": 8239,
      "suffix": 8240,
      "recipe": 8241,
      "Magic": 8242,
      "arc": 8243,
      "haz": 8244,
      "ERE": 8245,
      "acknowled": 8246,
      "pup": 8247,
      "intr": 8248,
      "festival": 8249,
      "freq": 8250,
      "Nob": 8251,
      "tiny": 8252,
      "wick": 8253,
      "uters": 8254,
      "noticed": 8255,
      "nis": 8256,
      "roots": 8257,
      "ABLE": 8258,
      "findings": 8259,
      "acid": 8260,
      "PP": 8261,
      "opher": 8262,
      "abet": 8263,
      "uous": 8264,
      "recognition": 8265,
      "iser": 8266,
      "aga": 8267,
      "itzer": 8268,
      "criticism": 8269,
      "upcoming": 8270,
      "essentially": 8271,
      "onymous": 8272,
      "Plus": 8273,
      "Square": 8274,
      "\"\",": 8275,
      "bab": 8276,
      "exclusive": 8277,
      "reaching": 8278,
      "tall": 8279,
      "Alab": 8280,
      "eral": 8281,
      "composed": 8282,
      "Ku": 8283,
      "Muslims": 8284,
      "journalist": 8285,
      "retrie": 8286,
      "cream": 8287,
      "Moore": 8288,
      "femin": 8289,
      "declined": 8290,
      "subsequently": 8291,
      "Jay": 8292,
      "tips": 8293,
      "Resource": 8294,
      "Lam": 8295,
      "bone": 8296,
      "merge": 8297,
      "Ñĥ": 8298,
      "Sweden": 8299,
      "lu": 8300,
      "alter": 8301,
      "taste": 8302,
      "ÃĤ": 8303,
      "dones": 8304,
      "nie": 8305,
      "aine": 8306,
      "Price": 8307,
      "funded": 8308,
      "birds": 8309,
      "Implement": 8310,
      "attacked": 8311,
      "advertising": 8312,
      "Swedish": 8313,
      "GT": 8314,
      "Several": 8315,
      "invited": 8316,
      "assem": 8317,
      "gly": 8318,
      "mph": 8319,
      "Which": 8320,
      "hasattr": 8321,
      "Kelly": 8322,
      "publicly": 8323,
      "exposed": 8324,
      "Hur": 8325,
      "assume": 8326,
      "Stream": 8327,
      "eli": 8328,
      "Allen": 8329,
      "pling": 8330,
      "compens": 8331,
      "templates": 8332,
      "responses": 8333,
      "Ut": 8334,
      "Args": 8335,
      "illing": 8336,
      "urb": 8337,
      "Pier": 8338,
      "deput": 8339,
      "saving": 8340,
      "issions": 8341,
      "Given": 8342,
      "Former": 8343,
      "handed": 8344,
      "Share": 8345,
      "Carl": 8346,
      "TEST": 8347,
      "contributed": 8348,
      "Http": 8349,
      "hem": 8350,
      "odd": 8351,
      "knowing": 8352,
      "icious": 8353,
      "Bry": 8354,
      "Lewis": 8355,
      "radical": 8356,
      "HS": 8357,
      "weren": 8358,
      "mk": 8359,
      "Come": 8360,
      "exposure": 8361,
      "correctly": 8362,
      "Josh": 8363,
      "Linux": 8364,
      "Entry": 8365,
      "representative": 8366,
      "Silver": 8367,
      "Perhaps": 8368,
      "agr": 8369,
      "falls": 8370,
      "providers": 8371,
      "sized": 8372,
      "Indones": 8373,
      "setUp": 8374,
      "Mount": 8375,
      "platforms": 8376,
      "bourne": 8377,
      "hyper": 8378,
      "1963": 8379,
      "scal": 8380,
      "cogn": 8381,
      "'\"": 8382,
      "finger": 8383,
      "Template": 8384,
      "Books": 8385,
      "sured": 8386,
      "Athlet": 8387,
      "INT": 8388,
      "vet": 8389,
      "marine": 8390,
      "kne": 8391,
      "Site": 8392,
      "franchise": 8393,
      "thin": 8394,
      "solo": 8395,
      "whel": 8396,
      "ctr": 8397,
      "Having": 8398,
      "Airport": 8399,
      "Bot": 8400,
      "areness": 8401,
      "magn": 8402,
      "sensitive": 8403,
      "vertical": 8404,
      "installation": 8405,
      "Nether": 8406,
      "reportedly": 8407,
      "dumps": 8408,
      "Administration": 8409,
      "700": 8410,
      "encry": 8411,
      "reduction": 8412,
      "-%": 8413,
      "jur": 8414,
      "FR": 8415,
      "lide": 8416,
      "sizes": 8417,
      "talked": 8418,
      "ORD": 8419,
      "generator": 8420,
      "perior": 8421,
      "toler": 8422,
      "Small": 8423,
      "horizon": 8424,
      "thumb": 8425,
      "cot": 8426,
      "Gun": 8427,
      "struck": 8428,
      "Burn": 8429,
      "Sav": 8430,
      "CI": 8431,
      "Region": 8432,
      "calc": 8433,
      "pension": 8434,
      "Patrick": 8435,
      "indicate": 8436,
      "180": 8437,
      "beauty": 8438,
      "awesome": 8439,
      "Unfortunately": 8440,
      "median": 8441,
      "handling": 8442,
      "satell": 8443,
      "uss": 8444,
      "dealing": 8445,
      "rejected": 8446,
      "Tech": 8447,
      "margin": 8448,
      "Dream": 8449,
      "Studies": 8450,
      "={": 8451,
      "1962": 8452,
      "Alabama": 8453,
      "Mas": 8454,
      "caption": 8455,
      "promoted": 8456,
      "likes": 8457,
      "fraud": 8458,
      "cable": 8459,
      "lux": 8460,
      "suite": 8461,
      "relief": 8462,
      "Rome": 8463,
      "intention": 8464,
      "twenty": 8465,
      "Captain": 8466,
      "Corporation": 8467,
      "void": 8468,
      "Filter": 8469,
      "interior": 8470,
      "NT": 8471,
      "Bos": 8472,
      "github": 8473,
      "blind": 8474,
      "Mode": 8475,
      "dinner": 8476,
      "urllib": 8477,
      "discovery": 8478,
      "closing": 8479,
      "apartment": 8480,
      "Television": 8481,
      "iversary": 8482,
      "transferred": 8483,
      "Matthe": 8484,
      "Save": 8485,
      "Sometimes": 8486,
      "tile": 8487,
      "execution": 8488,
      "activists": 8489,
      "impressive": 8490,
      "gif": 8491,
      "wrest": 8492,
      "Connection": 8493,
      "Queens": 8494,
      "ONE": 8495,
      "doctors": 8496,
      "cart": 8497,
      "backup": 8498,
      "dash": 8499,
      "trait": 8500,
      "rep": 8501,
      "Age": 8502,
      "arring": 8503,
      "Round": 8504,
      "offices": 8505,
      "><": 8506,
      "normally": 8507,
      "Creek": 8508,
      "agram": 8509,
      "Modern": 8510,
      "angel": 8511,
      "ouri": 8512,
      "heim": 8513,
      "yesterday": 8514,
      "haw": 8515,
      "grounds": 8516,
      "subjects": 8517,
      "apore": 8518,
      "drew": 8519,
      "Dallas": 8520,
      "backed": 8521,
      "Å¡": 8522,
      "fighters": 8523,
      "slot": 8524,
      "({'": 8525,
      "ende": 8526,
      "Should": 8527,
      "technique": 8528,
      "AI": 8529,
      "surprised": 8530,
      "announcement": 8531,
      "Getty": 8532,
      "_,": 8533,
      "dad": 8534,
      "simpl": 8535,
      "establishment": 8536,
      "strongly": 8537,
      "uma": 8538,
      "decline": 8539,
      "shipping": 8540,
      "household": 8541,
      "Gil": 8542,
      "rs": 8543,
      "estimate": 8544,
      "realized": 8545,
      "andal": 8546,
      "Diego": 8547,
      "understood": 8548,
      "TM": 8549,
      "()[": 8550,
      "fundamental": 8551,
      "persons": 8552,
      "Session": 8553,
      "Standard": 8554,
      "Ã£": 8555,
      "programme": 8556,
      "winners": 8557,
      "exceed": 8558,
      "emony": 8559,
      "guilty": 8560,
      "remark": 8561,
      "Medal": 8562,
      "visiting": 8563,
      "fabric": 8564,
      "Niger": 8565,
      "ishment": 8566,
      "Leon": 8567,
      "entities": 8568,
      "websites": 8569,
      "rog": 8570,
      "liver": 8571,
      "atar": 8572,
      "oma": 8573,
      "invas": 8574,
      "Rh": 8575,
      "estyle": 8576,
      "\"-": 8577,
      "slice": 8578,
      "zed": 8579,
      "reliable": 8580,
      "Building": 8581,
      "ERROR": 8582,
      "finance": 8583,
      "defaults": 8584,
      "pushed": 8585,
      "Arth": 8586,
      "')),": 8587,
      "administrative": 8588,
      "depends": 8589,
      "literally": 8590,
      "assertEquals": 8591,
      "modify": 8592,
      "axy": 8593,
      "echo": 8594,
      "Title": 8595,
      "intellect": 8596,
      "continuing": 8597,
      "Kal": 8598,
      "frames": 8599,
      "TypeError": 8600,
      "lah": 8601,
      "Logger": 8602,
      "colleagues": 8603,
      "Crit": 8604,
      "Ã¡n": 8605,
      "cann": 8606,
      "inating": 8607,
      "reputation": 8608,
      "Dol": 8609,
      "spell": 8610,
      "Anthony": 8611,
      "rolling": 8612,
      "101": 8613,
      "Options": 8614,
      "iveness": 8615,
      "bars": 8616,
      "comic": 8617,
      "COL": 8618,
      "ruled": 8619,
      "Sett": 8620,
      "1944": 8621,
      "Budd": 8622,
      "bott": 8623,
      "het": 8624,
      "itionally": 8625,
      "Maryland": 8626,
      "chi": 8627,
      "compete": 8628,
      "allies": 8629,
      "('-": 8630,
      "byte": 8631,
      "lined": 8632,
      "Rick": 8633,
      "Es": 8634,
      "DateTimeField": 8635,
      "inject": 8636,
      "march": 8637,
      "Attor": 8638,
      "heading": 8639,
      "abol": 8640,
      "criter": 8641,
      "sung": 8642,
      "Singapore": 8643,
      "00000000": 8644,
      "namespace": 8645,
      "identifier": 8646,
      "resid": 8647,
      "afted": 8648,
      "Fal": 8649,
      "STAT": 8650,
      "bund": 8651,
      "Clark": 8652,
      "YO": 8653,
      "Greece": 8654,
      "describes": 8655,
      "_('": 8656,
      "rally": 8657,
      "recognize": 8658,
      "Ni": 8659,
      "situations": 8660,
      "dollar": 8661,
      "castle": 8662,
      "neighbour": 8663,
      "Dur": 8664,
      "finals": 8665,
      "shore": 8666,
      "personally": 8667,
      "medicine": 8668,
      "tickets": 8669,
      "Lady": 8670,
      "pipeline": 8671,
      "penalty": 8672,
      "Pers": 8673,
      "constitu": 8674,
      "principal": 8675,
      "itals": 8676,
      "bounds": 8677,
      "converted": 8678,
      "tied": 8679,
      "1961": 8680,
      "ucing": 8681,
      "poverty": 8682,
      "coaches": 8683,
      "resolve": 8684,
      "documentary": 8685,
      "wage": 8686,
      "xe": 8687,
      "Coll": 8688,
      "migrations": 8689,
      "boxes": 8690,
      "Without": 8691,
      "LGB": 8692,
      "fought": 8693,
      "CB": 8694,
      "references": 8695,
      "/%": 8696,
      "consequences": 8697,
      "oked": 8698,
      "pairs": 8699,
      "thetic": 8700,
      "risks": 8701,
      "suspend": 8702,
      "outcome": 8703,
      "VID": 8704,
      "Could": 8705,
      "ignored": 8706,
      "shortly": 8707,
      "xf": 8708,
      "comed": 8709,
      "Atlanta": 8710,
      "Mol": 8711,
      "Know": 8712,
      "possess": 8713,
      "Tennes": 8714,
      "engineer": 8715,
      "----------": 8716,
      "vacc": 8717,
      "Categ": 8718,
      "Digital": 8719,
      "evil": 8720,
      "mc": 8721,
      "Islands": 8722,
      "amounts": 8723,
      "fault": 8724,
      "Collection": 8725,
      "Left": 8726,
      "mers": 8727,
      "atmosphere": 8728,
      "weigh": 8729,
      "logic": 8730,
      "atus": 8731,
      "grapher": 8732,
      "falling": 8733,
      "keeps": 8734,
      "subsequent": 8735,
      "milk": 8736,
      "Comple": 8737,
      "guests": 8738,
      "slowly": 8739,
      "Moon": 8740,
      "timed": 8741,
      "Dave": 8742,
      "Ocean": 8743,
      "ima": 8744,
      "adap": 8745,
      "Netherlands": 8746,
      ")*": 8747,
      "Simon": 8748,
      "Jason": 8749,
      "FM": 8750,
      "Tan": 8751,
      "molec": 8752,
      "watched": 8753,
      "Ale": 8754,
      "constantly": 8755,
      "reserved": 8756,
      "engage": 8757,
      "concluded": 8758,
      "âĢĻ.": 8759,
      "_(\"": 8760,
      "Fle": 8761,
      "mini": 8762,
      "accessible": 8763,
      "algorithm": 8764,
      "wake": 8765,
      "democracy": 8766,
      "developer": 8767,
      "Plot": 8768,
      "perfectly": 8769,
      "pressing": 8770,
      "suicide": 8771,
      "Article": 8772,
      "sculpt": 8773,
      "nn": 8774,
      "universe": 8775,
      "oder": 8776,
      "enthus": 8777,
      "wich": 8778,
      "professionals": 8779,
      "uing": 8780,
      "phenomen": 8781,
      "icks": 8782,
      "waters": 8783,
      "suitable": 8784,
      "leaf": 8785,
      "izers": 8786,
      "helpful": 8787,
      "households": 8788,
      "claiming": 8789,
      "electricity": 8790,
      "retirement": 8791,
      "spark": 8792,
      "racing": 8793,
      "illed": 8794,
      "Module": 8795,
      "gear": 8796,
      "efully": 8797,
      "opponent": 8798,
      "Third": 8799,
      "Wat": 8800,
      "oid": 8801,
      "faculty": 8802,
      "Ark": 8803,
      "130": 8804,
      "jail": 8805,
      "uniform": 8806,
      "privile": 8807,
      "Nic": 8808,
      "Ren": 8809,
      "ien": 8810,
      "fewer": 8811,
      "soil": 8812,
      "din": 8813,
      "losses": 8814,
      "href": 8815,
      "monthly": 8816,
      "($": 8817,
      "hint": 8818,
      "repeat": 8819,
      "spoken": 8820,
      "introduction": 8821,
      "Jenn": 8822,
      "entertainment": 8823,
      "validation": 8824,
      "stan": 8825,
      "concrete": 8826,
      "tm": 8827,
      "Commer": 8828,
      "judg": 8829,
      "Okla": 8830,
      "brothers": 8831,
      "Duke": 8832,
      "builder": 8833,
      "SEC": 8834,
      "Nev": 8835,
      "neuro": 8836,
      "Phys": 8837,
      "propag": 8838,
      "weekly": 8839,
      "outr": 8840,
      "settled": 8841,
      "VR": 8842,
      "Serial": 8843,
      "settle": 8844,
      "circle": 8845,
      "consumption": 8846,
      "Mayor": 8847,
      "Wind": 8848,
      "Gro": 8849,
      "VA": 8850,
      "Lie": 8851,
      "Ãĥ": 8852,
      "deser": 8853,
      "stery": 8854,
      "venues": 8855,
      "Senator": 8856,
      "hoping": 8857,
      "assessment": 8858,
      "Works": 8859,
      "targeted": 8860,
      "provin": 8861,
      "terrorist": 8862,
      "Tennessee": 8863,
      "bands": 8864,
      "Rol": 8865,
      "ante": 8866,
      "permissions": 8867,
      "spiritual": 8868,
      "bucket": 8869,
      "iously": 8870,
      "anticip": 8871,
      "bull": 8872,
      "tea": 8873,
      "crucial": 8874,
      "liquid": 8875,
      "jar": 8876,
      "acks": 8877,
      "upgrade": 8878,
      "overwhel": 8879,
      "chap": 8880,
      "Ð´": 8881,
      "Anderson": 8882,
      "ownership": 8883,
      "aki": 8884,
      "entre": 8885,
      "rebel": 8886,
      "1948": 8887,
      "crazy": 8888,
      "functional": 8889,
      "absor": 8890,
      "Plug": 8891,
      "threats": 8892,
      "Forest": 8893,
      "adj": 8894,
      "css": 8895,
      "irs": 8896,
      "Missouri": 8897,
      "kg": 8898,
      "migration": 8899,
      "ethnic": 8900,
      "UM": 8901,
      "integration": 8902,
      "rein": 8903,
      "emen": 8904,
      "\":\"": 8905,
      "courts": 8906,
      "occurs": 8907,
      "Holy": 8908,
      "Corps": 8909,
      "defic": 8910,
      "onso": 8911,
      "TIME": 8912,
      "################################################################": 8913,
      "argue": 8914,
      "Howard": 8915,
      "footballer": 8916,
      "Proto": 8917,
      "Iron": 8918,
      "tie": 8919,
      "adesh": 8920,
      "remo": 8921,
      "designated": 8922,
      "terior": 8923,
      "phrase": 8924,
      "Hotel": 8925,
      "aws": 8926,
      "Hart": 8927,
      "eties": 8928,
      "uggling": 8929,
      "controversial": 8930,
      "(%": 8931,
      "performances": 8932,
      "sock": 8933,
      "protests": 8934,
      "signals": 8935,
      "bian": 8936,
      "Mrs": 8937,
      "Vietnam": 8938,
      "oms": 8939,
      "IGHT": 8940,
      "instructions": 8941,
      "stamp": 8942,
      "dies": 8943,
      "Executive": 8944,
      "Rele": 8945,
      "iary": 8946,
      "philosophy": 8947,
      "vy": 8948,
      "Trade": 8949,
      "deeply": 8950,
      "bold": 8951,
      "PY": 8952,
      "peer": 8953,
      "journalists": 8954,
      "thinks": 8955,
      "efficiency": 8956,
      "pread": 8957,
      "Poly": 8958,
      "ori": 8959,
      "towns": 8960,
      "itarian": 8961,
      "Ti": 8962,
      "axes": 8963,
      "dispatch": 8964,
      "uncertain": 8965,
      "âĪĴ": 8966,
      "constitutional": 8967,
      "homa": 8968,
      "scenario": 8969,
      "asts": 8970,
      "Walker": 8971,
      "mesh": 8972,
      "google": 8973,
      "Gaz": 8974,
      "FE": 8975,
      "LGBT": 8976,
      "WR": 8977,
      "':'": 8978,
      "Cra": 8979,
      "Snow": 8980,
      "SL": 8981,
      "agen": 8982,
      "Ð¼": 8983,
      "awareness": 8984,
      "Dem": 8985,
      "Ltd": 8986,
      "Cambridge": 8987,
      "composition": 8988,
      "displayed": 8989,
      "eron": 8990,
      "Five": 8991,
      "Cloud": 8992,
      "principles": 8993,
      "1942": 8994,
      "Ð¿": 8995,
      "maintained": 8996,
      "tower": 8997,
      "terrorism": 8998,
      "classmethod": 8999,
      "quit": 9000,
      "Bowl": 9001,
      "roller": 9002,
      "Sor": 9003,
      "Palestinian": 9004,
      "generic": 9005,
      "WN": 9006,
      "Arthur": 9007,
      "oted": 9008,
      "credential": 9009,
      "ector": 9010,
      "stages": 9011,
      "hired": 9012,
      "bread": 9013,
      "manip": 9014,
      "onic": 9015,
      "checked": 9016,
      "genus": 9017,
      "Jun": 9018,
      "entering": 9019,
      "Andre": 9020,
      "notable": 9021,
      "ambig": 9022,
      "incorporated": 9023,
      "Ban": 9024,
      "Stor": 9025,
      "formerly": 9026,
      "clinical": 9027,
      "Prize": 9028,
      "exclude": 9029,
      "'^": 9030,
      "eland": 9031,
      "Buck": 9032,
      "promotion": 9033,
      "stab": 9034,
      "nin": 9035,
      "__':": 9036,
      "dit": 9037,
      "Constitution": 9038,
      "warn": 9039,
      "1956": 9040,
      "Ãł": 9041,
      "indicated": 9042,
      "tone": 9043,
      "1959": 9044,
      "powered": 9045,
      "procedure": 9046,
      "FROM": 9047,
      "deleted": 9048,
      "Cruz": 9049,
      "tracking": 9050,
      "radius": 9051,
      "cryp": 9052,
      "matching": 9053,
      "entitled": 9054,
      "indent": 9055,
      "walked": 9056,
      "ffect": 9057,
      "Fred": 9058,
      "downtown": 9059,
      "Route": 9060,
      "Heart": 9061,
      "XML": 9062,
      "supplies": 9063,
      "independence": 9064,
      "derived": 9065,
      "centers": 9066,
      "submitted": 9067,
      "shaped": 9068,
      "incredible": 9069,
      "reck": 9070,
      "pit": 9071,
      "municipal": 9072,
      "ags": 9073,
      "Reuters": 9074,
      "liked": 9075,
      "Oklahoma": 9076,
      "------------": 9077,
      "reporter": 9078,
      "firms": 9079,
      "LECT": 9080,
      "1958": 9081,
      "expectations": 9082,
      "enders": 9083,
      "landscape": 9084,
      "recur": 9085,
      "tah": 9086,
      "inity": 9087,
      "(\"\\": 9088,
      "viewed": 9089,
      "racial": 9090,
      "omin": 9091,
      "slip": 9092,
      "desired": 9093,
      "Range": 9094,
      "alph": 9095,
      "soul": 9096,
      "SN": 9097,
      "Beng": 9098,
      "Rub": 9099,
      "agu": 9100,
      "Multi": 9101,
      "compos": 9102,
      "rm": 9103,
      "unlikely": 9104,
      "Location": 9105,
      "1939": 9106,
      "proven": 9107,
      "participated": 9108,
      "Attorney": 9109,
      "Hit": 9110,
      "lawsuit": 9111,
      "soccer": 9112,
      "Hamilton": 9113,
      "revision": 9114,
      "Rep": 9115,
      "Spir": 9116,
      "symptoms": 9117,
      "Therefore": 9118,
      "everybody": 9119,
      "Eth": 9120,
      "Austin": 9121,
      "reporters": 9122,
      "stun": 9123,
      "ordering": 9124,
      "allegations": 9125,
      "strategic": 9126,
      "choos": 9127,
      "contributions": 9128,
      "mouse": 9129,
      "thousand": 9130,
      "terr": 9131,
      "graduated": 9132,
      "somewhere": 9133,
      "Mobile": 9134,
      "Dialog": 9135,
      "Cze": 9136,
      "speople": 9137,
      "neutral": 9138,
      "offense": 9139,
      "pkg": 9140,
      "Harris": 9141,
      "verage": 9142,
      "behalf": 9143,
      "hell": 9144,
      "Simple": 9145,
      "ilation": 9146,
      "fc": 9147,
      "agger": 9148,
      "regardless": 9149,
      "[[": 9150,
      "portray": 9151,
      "tut": 9152,
      "lobby": 9153,
      "improvement": 9154,
      "disabled": 9155,
      "puts": 9156,
      "ropical": 9157,
      "illance": 9158,
      "Dog": 9159,
      "QU": 9160,
      "anyway": 9161,
      "Ã£o": 9162,
      "Epis": 9163,
      "Was": 9164,
      "Wol": 9165,
      "fest": 9166,
      "Host": 9167,
      "404": 9168,
      "butter": 9169,
      "(\"%": 9170,
      "appl": 9171,
      "Hz": 9172,
      "MR": 9173,
      "strategies": 9174,
      "Auth": 9175,
      "BUG": 9176,
      "udes": 9177,
      "Eag": 9178,
      "adm": 9179,
      "congress": 9180,
      "={'": 9181,
      "brew": 9182,
      "Yu": 9183,
      "cited": 9184,
      "Assist": 9185,
      "distingu": 9186,
      "Places": 9187,
      "ikes": 9188,
      "Fi": 9189,
      "NASA": 9190,
      "Vice": 9191,
      "premium": 9192,
      "Requ": 9193,
      "owed": 9194,
      "illness": 9195,
      "stadium": 9196,
      "shirt": 9197,
      "CONF": 9198,
      "1941": 9199,
      "MAX": 9200,
      "classified": 9201,
      "PER": 9202,
      "hs": 9203,
      "harder": 9204,
      "fantastic": 9205,
      "warned": 9206,
      "transportation": 9207,
      "collaboration": 9208,
      "adequ": 9209,
      "ANT": 9210,
      "opponents": 9211,
      "BY": 9212,
      "arter": 9213,
      "berry": 9214,
      "iley": 9215,
      "immigrants": 9216,
      "districts": 9217,
      "Maria": 9218,
      "aus": 9219,
      "1943": 9220,
      "Prior": 9221,
      "straint": 9222,
      "Kentucky": 9223,
      "1957": 9224,
      "occupied": 9225,
      "essay": 9226,
      "USER": 9227,
      "crypto": 9228,
      "aimed": 9229,
      "Jacob": 9230,
      "px": 9231,
      "tort": 9232,
      "therapy": 9233,
      "Contact": 9234,
      "Kh": 9235,
      "Thread": 9236,
      "demands": 9237,
      "drinking": 9238,
      "Wo": 9239,
      "organic": 9240,
      "restaurants": 9241,
      "casting": 9242,
      "__)": 9243,
      "xc": 9244,
      "bn": 9245,
      "enhance": 9246,
      "abstract": 9247,
      "Entertain": 9248,
      "dst": 9249,
      "Liver": 9250,
      "cancell": 9251,
      "Jane": 9252,
      "Exp": 9253,
      "headquarters": 9254,
      "vital": 9255,
      "lawyers": 9256,
      "organisation": 9257,
      "Lock": 9258,
      "Harvard": 9259,
      ",[": 9260,
      "logical": 9261,
      "Buff": 9262,
      "routes": 9263,
      "reveal": 9264,
      "Fac": 9265,
      "PT": 9266,
      "legs": 9267,
      "merely": 9268,
      "variant": 9269,
      "edited": 9270,
      "comprehensive": 9271,
      "Judge": 9272,
      "extensions": 9273,
      "libr": 9274,
      "Morris": 9275,
      "vie": 9276,
      "lunch": 9277,
      "BooleanField": 9278,
      "keyword": 9279,
      "deleg": 9280,
      "Instance": 9281,
      "Mitch": 9282,
      "Ther": 9283,
      "lowest": 9284,
      "Figure": 9285,
      "complicated": 9286,
      "pill": 9287,
      "mainstream": 9288,
      "oga": 9289,
      "%,": 9290,
      "ocean": 9291,
      "colate": 9292,
      "alias": 9293,
      "ications": 9294,
      "timore": 9295,
      "transactions": 9296,
      "breaks": 9297,
      "Legisl": 9298,
      "endors": 9299,
      "'{": 9300,
      "Engineering": 9301,
      "compass": 9302,
      "unusual": 9303,
      "Len": 9304,
      "elsewhere": 9305,
      "thal": 9306,
      "designer": 9307,
      "Natural": 9308,
      "Rap": 9309,
      "processed": 9310,
      "fis": 9311,
      "eligible": 9312,
      "folks": 9313,
      "\"--": 9314,
      "corresponding": 9315,
      "suddenly": 9316,
      "asks": 9317,
      "fmt": 9318,
      "Cert": 9319,
      "DVD": 9320,
      "Ay": 9321,
      "assembly": 9322,
      "cip": 9323,
      "processor": 9324,
      "Additionally": 9325,
      "bills": 9326,
      "sque": 9327,
      "bron": 9328,
      "moon": 9329,
      "Affairs": 9330,
      "Liter": 9331,
      "periods": 9332,
      "Sciences": 9333,
      "enna": 9334,
      "stronger": 9335,
      "elta": 9336,
      "plications": 9337,
      "Wy": 9338,
      "canvas": 9339,
      "guarantee": 9340,
      "affordable": 9341,
      "flip": 9342,
      "1947": 9343,
      "Philippines": 9344,
      "Sarah": 9345,
      "chrom": 9346,
      "1946": 9347,
      "Treat": 9348,
      "bacter": 9349,
      "monitoring": 9350,
      "threatened": 9351,
      "descent": 9352,
      "constrain": 9353,
      "calendar": 9354,
      "conclusion": 9355,
      "worthy": 9356,
      "bond": 9357,
      "Chall": 9358,
      "brush": 9359,
      "wet": 9360,
      "ceremony": 9361,
      "Due": 9362,
      ")\",": 9363,
      "drum": 9364,
      "counsel": 9365,
      "listening": 9366,
      "priest": 9367,
      "etary": 9368,
      "estimates": 9369,
      "READ": 9370,
      "bonus": 9371,
      "ZE": 9372,
      "Khan": 9373,
      "legacy": 9374,
      "poch": 9375,
      "legally": 9376,
      "musicians": 9377,
      "vocal": 9378,
      "compr": 9379,
      "rely": 9380,
      "narrative": 9381,
      "FS": 9382,
      "rice": 9383,
      "educated": 9384,
      "bunch": 9385,
      "allegedly": 9386,
      "Scre": 9387,
      "bors": 9388,
      "sd": 9389,
      "coord": 9390,
      "XT": 9391,
      "sian": 9392,
      "genes": 9393,
      "Melbourne": 9394,
      "ighth": 9395,
      "1955": 9396,
      "sixth": 9397,
      "Independent": 9398,
      "circ": 9399,
      "productive": 9400,
      "myth": 9401,
      "Arm": 9402,
      "Glen": 9403,
      "feelings": 9404,
      "chip": 9405,
      "Initial": 9406,
      "aco": 9407,
      "Editor": 9408,
      "seas": 9409,
      "contribute": 9410,
      "cope": 9411,
      "utility": 9412,
      "objective": 9413,
      "compatible": 9414,
      "borough": 9415,
      "expat": 9416,
      "bis": 9417,
      "cols": 9418,
      "contracts": 9419,
      "Happ": 9420,
      "diverse": 9421,
      "movements": 9422,
      "opol": 9423,
      "lookup": 9424,
      ")+": 9425,
      "mistake": 9426,
      "bases": 9427,
      "Baltimore": 9428,
      "furniture": 9429,
      "strange": 9430,
      "mg": 9431,
      "coln": 9432,
      "Ju": 9433,
      "presentation": 9434,
      "residential": 9435,
      "NHL": 9436,
      "Course": 9437,
      "Shad": 9438,
      "Format": 9439,
      "Doctor": 9440,
      "Album": 9441,
      "1952": 9442,
      "Grant": 9443,
      "meal": 9444,
      "Colon": 9445,
      "Cow": 9446,
      "Token": 9447,
      "afr": 9448,
      "ista": 9449,
      "'\",": 9450,
      "Clevel": 9451,
      "reducing": 9452,
      "Tele": 9453,
      "Bible": 9454,
      "hub": 9455,
      "curve": 9456,
      "ibli": 9457,
      "Brig": 9458,
      "Senior": 9459,
      "calculate": 9460,
      "repeatedly": 9461,
      "buried": 9462,
      "conventional": 9463,
      "accuracy": 9464,
      "substantial": 9465,
      "Gab": 9466,
      "DJ": 9467,
      "touchdown": 9468,
      "preferred": 9469,
      "Bureau": 9470,
      "archy": 9471,
      "executed": 9472,
      "aire": 9473,
      "Hawai": 9474,
      "Cleveland": 9475,
      "iller": 9476,
      "pushing": 9477,
      "rett": 9478,
      "Clean": 9479,
      "rican": 9480,
      "DATA": 9481,
      "challenging": 9482,
      "Capital": 9483,
      "merged": 9484,
      "`.": 9485,
      "peror": 9486,
      "rational": 9487,
      "computers": 9488,
      "FIG": 9489,
      "bias": 9490,
      "fixture": 9491,
      "agenda": 9492,
      "Contain": 9493,
      "PG": 9494,
      "restore": 9495,
      "Similar": 9496,
      "RAN": 9497,
      "SION": 9498,
      "Based": 9499,
      "classical": 9500,
      "conversion": 9501,
      "(**": 9502,
      "ologists": 9503,
      "Tool": 9504,
      "Lincoln": 9505,
      "Between": 9506,
      "Clo": 9507,
      "OD": 9508,
      "receiver": 9509,
      "ISIS": 9510,
      "Political": 9511,
      "releases": 9512,
      "repository": 9513,
      "sink": 9514,
      "Anna": 9515,
      "defence": 9516,
[...]
